{
  "version": "1.0",
  "truncation": null,
  "padding": null,
  "added_tokens": [
    {
      "id": 0,
      "content": "[PAD]",
      "single_word": false,
      "lstrip": false,
      "rstrip": false,
      "normalized": false,
      "special": true
    },
    {
      "id": 1,
      "content": "[BOS]",
      "single_word": false,
      "lstrip": false,
      "rstrip": false,
      "normalized": false,
      "special": true
    },
    {
      "id": 2,
      "content": "[EOS]",
      "single_word": false,
      "lstrip": false,
      "rstrip": false,
      "normalized": false,
      "special": true
    },
    {
      "id": 3,
      "content": "[UNK]",
      "single_word": false,
      "lstrip": false,
      "rstrip": false,
      "normalized": false,
      "special": true
    }
  ],
  "normalizer": null,
  "pre_tokenizer": {
    "type": "ByteLevel",
    "add_prefix_space": false,
    "trim_offsets": true,
    "use_regex": true
  },
  "post_processor": null,
  "decoder": null,
  "model": {
    "type": "BPE",
    "dropout": null,
    "unk_token": "[UNK]",
    "continuing_subword_prefix": null,
    "end_of_word_suffix": null,
    "fuse_unk": false,
    "byte_fallback": false,
    "ignore_merges": false,
    "vocab": {
      "[PAD]": 0,
      "[BOS]": 1,
      "[EOS]": 2,
      "[UNK]": 3,
      "!": 4,
      "\"": 5,
      "#": 6,
      "$": 7,
      "%": 8,
      "&": 9,
      "'": 10,
      "(": 11,
      ")": 12,
      "*": 13,
      "+": 14,
      ",": 15,
      "-": 16,
      ".": 17,
      "/": 18,
      "0": 19,
      "1": 20,
      "2": 21,
      "3": 22,
      "4": 23,
      "5": 24,
      "6": 25,
      "7": 26,
      "8": 27,
      "9": 28,
      ":": 29,
      ";": 30,
      "<": 31,
      "=": 32,
      ">": 33,
      "?": 34,
      "@": 35,
      "A": 36,
      "B": 37,
      "C": 38,
      "D": 39,
      "E": 40,
      "F": 41,
      "G": 42,
      "H": 43,
      "I": 44,
      "J": 45,
      "K": 46,
      "L": 47,
      "M": 48,
      "N": 49,
      "O": 50,
      "P": 51,
      "Q": 52,
      "R": 53,
      "S": 54,
      "T": 55,
      "U": 56,
      "V": 57,
      "W": 58,
      "X": 59,
      "Y": 60,
      "Z": 61,
      "[": 62,
      "\\": 63,
      "]": 64,
      "_": 65,
      "`": 66,
      "a": 67,
      "b": 68,
      "c": 69,
      "d": 70,
      "e": 71,
      "f": 72,
      "g": 73,
      "h": 74,
      "i": 75,
      "j": 76,
      "k": 77,
      "l": 78,
      "m": 79,
      "n": 80,
      "o": 81,
      "p": 82,
      "q": 83,
      "r": 84,
      "s": 85,
      "t": 86,
      "u": 87,
      "v": 88,
      "w": 89,
      "x": 90,
      "y": 91,
      "z": 92,
      "{": 93,
      "|": 94,
      "}": 95,
      "~": 96,
      "¡": 97,
      "¢": 98,
      "£": 99,
      "¤": 100,
      "¥": 101,
      "¦": 102,
      "§": 103,
      "¨": 104,
      "©": 105,
      "ª": 106,
      "«": 107,
      "¬": 108,
      "®": 109,
      "¯": 110,
      "°": 111,
      "±": 112,
      "²": 113,
      "³": 114,
      "´": 115,
      "µ": 116,
      "¶": 117,
      "·": 118,
      "¸": 119,
      "¹": 120,
      "º": 121,
      "»": 122,
      "¼": 123,
      "½": 124,
      "¾": 125,
      "¿": 126,
      "Â": 127,
      "Ã": 128,
      "Å": 129,
      "Æ": 130,
      "Ë": 131,
      "â": 132,
      "ĉ": 133,
      "Ċ": 134,
      "Ġ": 135,
      "Ģ": 136,
      "Ĥ": 137,
      "ĥ": 138,
      "Ħ": 139,
      "ħ": 140,
      "Ĩ": 141,
      "ī": 142,
      "Ĭ": 143,
      "ĳ": 144,
      "Ĵ": 145,
      "ĵ": 146,
      "ĺ": 147,
      "Ļ": 148,
      "ļ": 149,
      "ľ": 150,
      "Ŀ": 151,
      "ŀ": 152,
      "ł": 153,
      "Ń": 154,
      "he": 155,
      "Ġt": 156,
      "Ġa": 157,
      "Ġs": 158,
      "Ġw": 159,
      "nd": 160,
      "Ġthe": 161,
      "ed": 162,
      "Ġand": 163,
      "Ġto": 164,
      "Ġb": 165,
      "in": 166,
      "Ġh": 167,
      "Ġwa": 168,
      "re": 169,
      "ou": 170,
      "Ġf": 171,
      "it": 172,
      "Ġl": 173,
      "Ġc": 174,
      "Ġd": 175,
      "er": 176,
      "Ġhe": 177,
      "Ġm": 178,
      "Ġp": 179,
      "Ġwas": 180,
      "om": 181,
      "ĠT": 182,
      "Ġo": 183,
      "ay": 184,
      "ar": 185,
      "is": 186,
      "ing": 187,
      "il": 188,
      "Ġg": 189,
      "id": 190,
      "at": 191,
      "en": 192,
      "Ġn": 193,
      "Ġsa": 194,
      "Ġha": 195,
      "ĠS": 196,
      "ĠThe": 197,
      "an": 198,
      "im": 199,
      "or": 200,
      "on": 201,
      "Ġit": 202,
      "Ġth": 203,
      "ll": 204,
      "le": 205,
      "ĠH": 206,
      "Ġher": 207,
      "ot": 208,
      "et": 209,
      "ir": 210,
      "ĠShe": 211,
      "es": 212,
      "ĠHe": 213,
      "Ġin": 214,
      "ver": 215,
      "ut": 216,
      "ow": 217,
      "ĠThey": 218,
      "ck": 219,
      "Ġe": 220,
      "Ġu": 221,
      "ld": 222,
      "Ġy": 223,
      "oo": 224,
      "Ġsaid": 225,
      "ig": 226,
      "Ġ\"": 227,
      "ily": 228,
      "Ġr": 229,
      "Ġbe": 230,
      "am": 231,
      "Ġst": 232,
      "ĠI": 233,
      "ce": 234,
      "ke": 235,
      "Ġshe": 236,
      "ve": 237,
      "pp": 238,
      "ith": 239,
      "Ġwith": 240,
      "Lily": 241,
      "On": 242,
      "Ġon": 243,
      "Ġyou": 244,
      "Ġof": 245,
      "ked": 246,
      "ri": 247,
      "Ġso": 248,
      "nt": 249,
      "Ġhis": 250,
      "Ġpl": 251,
      "ad": 252,
      "very": 253,
      "Ġday": 254,
      "Ġthat": 255,
      "Ġup": 256,
      "Ġplay": 257,
      "Ġhad": 258,
      "st": 259,
      "Ġthey": 260,
      "Ġwe": 261,
      "ĠLily": 262,
      "Ġmom": 263,
      "Ġfor": 264,
      "ĠB": 265,
      "el": 266,
      "un": 267,
      "ould": 268,
      "'s": 269,
      "my": 270,
      "The": 271,
      "Ġli": 272,
      "ch": 273,
      "ent": 274,
      "Ġhapp": 275,
      "Ġwant": 276,
      "itt": 277,
      "Ġsh": 278,
      "out": 279,
      "her": 280,
      "Ġdo": 281,
      "ly": 282,
      "Ġnot": 283,
      "ome": 284,
      "se": 285,
      "Ġvery": 286,
      "ound": 287,
      "end": 288,
      "all": 289,
      "Ġwh": 290,
      "ime": 291,
      "ittle": 292,
      "Ġk": 293,
      "Ġtime": 294,
      "Ġlittle": 295,
      "al": 296,
      "Ġthere": 297,
      "Ġne": 298,
      "ht": 299,
      "ĠM": 300,
      "Ġre": 301,
      "Ġhappy": 302,
      "Ġsm": 303,
      "Ġbig": 304,
      "Ġis": 305,
      "ĠĊ": 306,
      "ĠIt": 307,
      "Ġbut": 308,
      "ack": 309,
      "Ġan": 310,
      "Ġsaw": 311,
      "riend": 312,
      ".\"": 313,
      "Ġfriend": 314,
      "ry": 315,
      "Ġas": 316,
      "ra": 317,
      "One": 318,
      "ide": 319,
      "ake": 320,
      "'t": 321,
      "!\"": 322,
      "ug": 323,
      "Ġloo": 324,
      "ved": 325,
      "ter": 326,
      "Ġwere": 327,
      "ore": 328,
      "Once": 329,
      "Ġlo": 330,
      "ec": 331,
      "Ġhim": 332,
      "Ġtoo": 333,
      "Ġgo": 334,
      "Ġbo": 335,
      "Ġse": 336,
      "irl": 337,
      "Ġare": 338,
      "Ġj": 339,
      "ĠTim": 340,
      "ard": 341,
      "Ġwanted": 342,
      "ill": 343,
      "Ġgirl": 344,
      "Ġupon": 345,
      "Ġthem": 346,
      "Ġout": 347,
      "Ġat": 348,
      "ur": 349,
      "ind": 350,
      "Ġtheir": 351,
      "fu": 352,
      "Ġsp": 353,
      "way": 354,
      "ĠA": 355,
      "Ġsmil": 356,
      "Ġdid": 357,
      "Ġcould": 358,
      "hen": 359,
      "Ġhave": 360,
      "ain": 361,
      "art": 362,
      "Ġex": 363,
      "hed": 364,
      "rom": 365,
      "Ġwent": 366,
      "Ġar": 367,
      "ic": 368,
      "Ġcan": 369,
      "ĠJ": 370,
      "lp": 371,
      "ful": 372,
      "ĠBen": 373,
      "ood": 374,
      "?\"": 375,
      "hing": 376,
      "Ġfriends": 377,
      "Ġnam": 378,
      "ight": 379,
      "Ġall": 380,
      "Ġhelp": 381,
      "Ġkn": 382,
      "um": 383,
      "one": 384,
      "ark": 385,
      "Ġback": 386,
      "Ġsay": 387,
      "You": 388,
      "Ġfun": 389,
      "Ġcl": 390,
      "ĠTom": 391,
      "are": 392,
      "Ġno": 393,
      "Ġle": 394,
      "op": 395,
      "Ġsmiled": 396,
      "Ġsc": 397,
      "Ġnamed": 398,
      "Ġal": 399,
      "oug": 400,
      "Ġloved": 401,
      "side": 402,
      "elt": 403,
      "ĠOne": 404,
      "Ġman": 405,
      "Ġasked": 406,
      "ick": 407,
      "Ġtoy": 408,
      "Ġlike": 409,
      "Ġfe": 410,
      "Ġfelt": 411,
      "Ġlooked": 412,
      "Ġsome": 413,
      "Ġaround": 414,
      "Ġsee": 415,
      "Ġme": 416,
      "ame": 417,
      "omet": 418,
      "ĠW": 419,
      "Ġro": 420,
      "Ġbr": 421,
      "ure": 422,
      "ĠTimmy": 423,
      "Ġbir": 424,
      "get": 425,
      "ice": 426,
      "Ġboy": 427,
      "Ġwould": 428,
      "Ġstart": 429,
      "ong": 430,
      "Ã¢": 431,
      "âĤ": 432,
      "âĤ¬": 433,
      "ss": 434,
      "Ġbird": 435,
      "Ġsomet": 436,
      "Ġfa": 437,
      "dd": 438,
      "ings": 439,
      "Ġag": 440,
      "Ġwor": 441,
      "Ġwhat": 442,
      "ade": 443,
      "Ġmake": 444,
      "king": 445,
      ",\"": 446,
      "ie": 447,
      "ĠBut": 448,
      "own": 449,
      "Ġtre": 450,
      "Ġran": 451,
      "gether": 452,
      "ĠYou": 453,
      "Ġaway": 454,
      "ag": 455,
      "ared": 456,
      "Ġsays": 457,
      "Ġstarted": 458,
      "oud": 459,
      "if": 460,
      "Ġmade": 461,
      "Ġcar": 462,
      "Ġsomething": 463,
      "Ġtogether": 464,
      "ited": 465,
      "ther": 466,
      "Ġpark": 467,
      "Ġco": 468,
      "Ġsad": 469,
      "Ġother": 470,
      "Ġnew": 471,
      "Ġexc": 472,
      "Ġput": 473,
      "Ġfrom": 474,
      "Ġpr": 475,
      "ell": 476,
      "ĠL": 477,
      "Ġla": 478,
      "Ġhug": 479,
      "ble": 480,
      "Ġmu": 481,
      "ook": 482,
      "ach": 483,
      "Ġagain": 484,
      "Ġhome": 485,
      "Ġwhen": 486,
      "Ġgood": 487,
      "hat": 488,
      "ep": 489,
      "Ġwho": 490,
      "est": 491,
      "ried": 492,
      "Ġfound": 493,
      "Ġfl": 494,
      "Ġthen": 495,
      "Ġch": 496,
      "Ġdec": 497,
      "pped": 498,
      "Ġwal": 499,
      "as": 500,
      "Ġget": 501,
      "qu": 502,
      "Ġplaying": 503,
      "ought": 504,
      "pl": 505,
      "ĠE": 506,
      "ally": 507,
      "Ġsw": 508,
      "ous": 509,
      "nn": 510,
      "Ġthings": 511,
      "Ġexcited": 512,
      "Ġliked": 513,
      "Ġgot": 514,
      "uck": 515,
      "ro": 516,
      "ided": 517,
      "Ġdecided": 518,
      "Ġbl": 519,
      "ave": 520,
      "Ġcame": 521,
      "Ġevery": 522,
      "ara": 523,
      "Ġyour": 524,
      "ĠD": 525,
      "ĠMom": 526,
      "ax": 527,
      "Ġv": 528,
      "Ġscared": 529,
      "ust": 530,
      "Ġone": 531,
      "Ġdog": 532,
      "Ġdown": 533,
      "ouse": 534,
      "ny": 535,
      "Ġfind": 536,
      "Ġcare": 537,
      "Ġbec": 538,
      "ist": 539,
      "Ġthan": 540,
      "Ġfeel": 541,
      "ap": 542,
      "ue": 543,
      "udd": 544,
      "nna": 545,
      "Ġdad": 546,
      "Ġab": 547,
      "They": 548,
      "Ġmy": 549,
      "Ġlook": 550,
      "Ġke": 551,
      "our": 552,
      "Ġwill": 553,
      "arn": 554,
      "Ġgr": 555,
      "us": 556,
      "nder": 557,
      "Ġgra": 558,
      "ways": 559,
      "ess": 560,
      "Ġdidn": 561,
      "Ġpo": 562,
      "fe": 563,
      "Ġalways": 564,
      "Ġtook": 565,
      "Ġabout": 566,
      "ant": 567,
      "bb": 568,
      "Ġlot": 569,
      "Ġmommy": 570,
      "Ġtoys": 571,
      "Ġkne": 572,
      "ers": 573,
      "ise": 574,
      "ite": 575,
      "Ġoutside": 576,
      "Ġtree": 577,
      "Ġthought": 578,
      "Ġball": 579,
      "ĠF": 580,
      "Ġmore": 581,
      "eci": 582,
      "ĠSam": 583,
      "ened": 584,
      "ched": 585,
      "Ġta": 586,
      "Ġold": 587,
      "Ġho": 588,
      "Ġlearn": 589,
      "ret": 590,
      "Ġint": 591,
      "ged": 592,
      "Ġknow": 593,
      "Ġlaug": 594,
      "Ġtake": 595,
      "ecial": 596,
      "Ġspecial": 597,
      "Ġsor": 598,
      "Ġcat": 599,
      "udden": 600,
      "Ġknew": 601,
      "ĠMax": 602,
      "ive": 603,
      "ia": 604,
      "Ġpe": 605,
      "Ġany": 606,
      "uddenly": 607,
      "Ġtr": 608,
      "fter": 609,
      "Ġhow": 610,
      "ma": 611,
      "Ġshow": 612,
      "ink": 613,
      "Ġsorry": 614,
      "Ġtw": 615,
      "But": 616,
      "Ġmuch": 617,
      "au": 618,
      "ish": 619,
      "Ġrun": 620,
      "and": 621,
      "Ġhand": 622,
      "Ġsl": 623,
      "ven": 624,
      "Ġhouse": 625,
      "Ġor": 626,
      "Ġop": 627,
      "Ġsk": 628,
      "Ġmo": 629,
      "Ġclo": 630,
      "Ġsun": 631,
      "Ġinto": 632,
      "Ġtried": 633,
      "Ġinside": 634,
      "ate": 635,
      "Ġtold": 636,
      "Ġwater": 637,
      "Ġthis": 638,
      "Ġen": 639,
      "ank": 640,
      "Ġif": 641,
      "Ġproud": 642,
      "ump": 643,
      "Ġqu": 644,
      "Ġover": 645,
      "Ġcouldn": 646,
      "Tom": 647,
      "dy": 648,
      "Ġgave": 649,
      "Ġheard": 650,
      "ĠSara": 651,
      "Ġnever": 652,
      "by": 653,
      "Ġeach": 654,
      "ace": 655,
      "Ġroom": 656,
      "ty": 657,
      "Ġexpl": 658,
      "ĠEvery": 659,
      "Ġeat": 660,
      "ĠWe": 661,
      "other": 662,
      "ause": 663,
      "Ġpick": 664,
      "ion": 665,
      "Ġpret": 666,
      "ĠAnna": 667,
      "Mom": 668,
      "Ġplayed": 669,
      "ge": 670,
      "etter": 671,
      "Ġjust": 672,
      "ak": 673,
      "Ġhugged": 674,
      "Ġgre": 675,
      "here": 676,
      "Ġoff": 677,
      "Ġcom": 678,
      "Ġwat": 679,
      "oth": 680,
      "Ġbox": 681,
      "Ġnice": 682,
      "'m": 683,
      "Ġstr": 684,
      "Ġbecause": 685,
      "Ġneed": 686,
      "ile": 687,
      "Ġmany": 688,
      "Ġfo": 689,
      "uc": 690,
      "Ġjo": 691,
      "Ġbear": 692,
      "Ġsmall": 693,
      "iz": 694,
      "Ġbu": 695,
      "ving": 696,
      "Ġlong": 697,
      "ine": 698,
      "gry": 699,
      "imal": 700,
      "ort": 701,
      "Ġanimal": 702,
      "Ġsn": 703,
      "ough": 704,
      "Ġtry": 705,
      "Ġunt": 706,
      "ild": 707,
      "sel": 708,
      "urt": 709,
      "Ġuntil": 710,
      "ĠJack": 711,
      "sed": 712,
      "Ġkind": 713,
      "Ġlearned": 714,
      "Ġim": 715,
      "Ġlove": 716,
      "Ġbetter": 717,
      "ft": 718,
      "Ġflow": 719,
      "Ġcall": 720,
      "Ġdon": 721,
      "He": 722,
      "ĠJo": 723,
      "Ġend": 724,
      "Ġad": 725,
      "ull": 726,
      "Ġbest": 727,
      "vent": 728,
      "Yes": 729,
      "ars": 730,
      "urp": 731,
      "ady": 732,
      "em": 733,
      "ream": 734,
      "aut": 735,
      "urn": 736,
      "ĠMia": 737,
      "Ġcle": 738,
      "ĠAnd": 739,
      "ves": 740,
      "Åĵ": 741,
      "arden": 742,
      "ĠC": 743,
      "Ġgarden": 744,
      "Ġfast": 745,
      "Ġcareful": 746,
      "ber": 747,
      "Ġbeaut": 748,
      "lly": 749,
      "Th": 750,
      "Ġeven": 751,
      "pt": 752,
      "Ġbra": 753,
      "ies": 754,
      "Ġthanked": 755,
      "Ġfi": 756,
      "ĠSo": 757,
      "Ġche": 758,
      "Ġlaughed": 759,
      "Ġsky": 760,
      "Ġby": 761,
      "It": 762,
      "ĠHer": 763,
      "Ġjump": 764,
      "Ġgl": 765,
      "ase": 766,
      "Ġte": 767,
      "Ġloud": 768,
      "self": 769,
      "iny": 770,
      "Ġway": 771,
      "wn": 772,
      "Ġbeauti": 773,
      "Ġcome": 774,
      "lew": 775,
      "Ġlist": 776,
      "Ġwo": 777,
      "Ġbeautiful": 778,
      "Ġhard": 779,
      "Ġlots": 780,
      "Ġra": 781,
      "Ġstill": 782,
      "Ġfam": 783,
      "Ġanimals": 784,
      "ĠÃ¢": 785,
      "Ġhurt": 786,
      "Ġunder": 787,
      "ĠThen": 788,
      "ect": 789,
      "Ġstay": 790,
      "ning": 791,
      "Ġlet": 792,
      "ct": 793,
      "Ġboth": 794,
      "Ġcu": 795,
      "ĠHis": 796,
      "hes": 797,
      "be": 798,
      "Ġsafe": 799,
      "ĠFrom": 800,
      "ool": 801,
      "ree": 802,
      "Ġcol": 803,
      "Ġtwo": 804,
      "Ġbad": 805,
      "Ġbook": 806,
      "Ġimp": 807,
      "ople": 808,
      "Ġrem": 809,
      "ane": 810,
      "Ġlived": 811,
      "kay": 812,
      "ock": 813,
      "ucy": 814,
      "Ġwalked": 815,
      "Tim": 816,
      "ast": 817,
      "urpr": 818,
      "Ġbrave": 819,
      "Ġshould": 820,
      "Ġits": 821,
      "ob": 822,
      "ished": 823,
      "Ġangry": 824,
      "Ġsurpr": 825,
      "Ġfamily": 826,
      "ress": 827,
      "igh": 828,
      "When": 829,
      "Ġpeople": 830,
      "Ġflew": 831,
      "Ġcalled": 832,
      "No": 833,
      "Ġred": 834,
      "Ġstor": 835,
      "ip": 836,
      "Ġsoon": 837,
      "Ġfin": 838,
      "hn": 839,
      "Let": 840,
      "led": 841,
      "Ġkept": 842,
      "Ġfore": 843,
      "fore": 844,
      "Ġdan": 845,
      "Ġshare": 846,
      "Ġfly": 847,
      "xt": 848,
      "ised": 849,
      "dded": 850,
      "Ġpic": 851,
      "âĤ¬â": 852,
      "Ġdoor": 853,
      "Ġgoing": 854,
      "ĠP": 855,
      "ĠWhen": 856,
      "Ġpretty": 857,
      "Ġkeep": 858,
      "Ġnow": 859,
      "Ġrock": 860,
      "Ġclean": 861,
      "Ġdra": 862,
      "ary": 863,
      "Ġadvent": 864,
      "ummy": 865,
      "Ġnoise": 866,
      "Ġopened": 867,
      "Ġshiny": 868,
      "age": 869,
      "Ġexplore": 870,
      "Ġwind": 871,
      "Ġdoll": 872,
      "Ġcry": 873,
      "Ġcon": 874,
      "Ġide": 875,
      "Ġbefore": 876,
      "ied": 877,
      "Ben": 878,
      "illy": 879,
      "Ġreal": 880,
      "Ġsto": 881,
      "so": 882,
      "What": 883,
      "Ġground": 884,
      "Ġalso": 885,
      "les": 886,
      "Ġturn": 887,
      "Ħ¢": 888,
      "âĤ¬âĦ¢": 889,
      "Ġey": 890,
      "That": 891,
      "Ġfar": 892,
      "Ġidea": 893,
      "Ġfr": 894,
      "oon": 895,
      "Ġnodded": 896,
      "Ġcolor": 897,
      "Ġwar": 898,
      "oy": 899,
      "Ġfeeling": 900,
      "Ġun": 901,
      "Ġpicked": 902,
      "imb": 903,
      "th": 904,
      "ĠLucy": 905,
      "Ġnext": 906,
      "Ġwalking": 907,
      "thing": 908,
      "ture": 909,
      "ĠDad": 910,
      "Ġclimb": 911,
      "Ġhas": 912,
      "uch": 913,
      "Ġma": 914,
      "Ġthr": 915,
      "Ġwhile": 916,
      "eet": 917,
      "Ġbed": 918,
      "Ġadventure": 919,
      "Ġsmile": 920,
      "kes": 921,
      "aybe": 922,
      "Thank": 923,
      "iced": 924,
      "ger": 925,
      "ious": 926,
      "ĠG": 927,
      "Ġbeing": 928,
      "Ġdif": 929,
      "Ġwr": 930,
      "Ġclos": 931,
      "Ġfood": 932,
      "joy": 933,
      "ted": 934,
      "Ġgive": 935,
      "Ġpicture": 936,
      "Ġthink": 937,
      "ĠSp": 938,
      "Ġlooking": 939,
      "Ġdel": 940,
      "ff": 941,
      "ac": 942,
      "Ġtruck": 943,
      "Ġwait": 944,
      "Ġeyes": 945,
      "ught": 946,
      "Ġtow": 947,
      "ting": 948,
      "Ġrepl": 949,
      "Ġbro": 950,
      "Ġstopped": 951,
      "Ġlisten": 952,
      "Ġafter": 953,
      "Ġbre": 954,
      "Ġown": 955,
      "Ġvo": 956,
      "Ġwalk": 957,
      "ember": 958,
      "ĠSuddenly": 959,
      "Ġwonder": 960,
      "Ġgreat": 961,
      "Ġhands": 962,
      "Suddenly": 963,
      "Ġshout": 964,
      "Ġhead": 965,
      "Ġenjoy": 966,
      "Ġimport": 967,
      "Ġflowers": 968,
      "Ġever": 969,
      "Ġnoticed": 970,
      "Ġblue": 971,
      "Ġforest": 972,
      "bbit": 973,
      "She": 974,
      "ized": 975,
      "Ġapp": 976,
      "irst": 977,
      "Ġnear": 978,
      "Ġquick": 979,
      "Ġdis": 980,
      "Ġde": 981,
      "able": 982,
      "Ġimportant": 983,
      "Ġremember": 984,
      "Ġfish": 985,
      "llow": 986,
      "Ġsound": 987,
      "Ġslide": 988,
      "Ġus": 989,
      "maz": 990,
      "Ġreplied": 991,
      "Ġamaz": 992,
      "Ġac": 993,
      "lease": 994,
      "Ġwork": 995,
      "Ġwatch": 996,
      "Ġrain": 997,
      "Ġshowed": 998,
      "Ġrabbit": 999,
      "Ġokay": 1000,
      "gan": 1001,
      "Ġtal": 1002,
      "bye": 1003,
      "fere": 1004,
      "bbed": 1005,
      "Ġask": 1006,
      "Ġdiffere": 1007,
      "Ġmean": 1008,
      "Ġright": 1009,
      "Ġye": 1010,
      "day": 1011,
      "Ġwatched": 1012,
      "Ġbright": 1013,
      "Ġfollow": 1014,
      "We": 1015,
      "ĠSpot": 1016,
      "So": 1017,
      "Ġeveryone": 1018,
      "Ġstrong": 1019,
      "Ġsqu": 1020,
      "Ġstick": 1021,
      "Ġuse": 1022,
      "Ġbeen": 1023,
      "Ġmor": 1024,
      "Ġvoice": 1025,
      "Ġtra": 1026,
      "ered": 1027,
      "Ġquickly": 1028,
      "ath": 1029,
      "Ġour": 1030,
      "Ġwhere": 1031,
      "Ġyell": 1032,
      "ĠN": 1033,
      "ĠMommy": 1034,
      "Anna": 1035,
      "Ġdifferent": 1036,
      "ĠBob": 1037,
      "Ġchild": 1038,
      "Ġcuri": 1039,
      "Ġboat": 1040,
      "ng": 1041,
      "Ġsure": 1042,
      "ĠSue": 1043,
      "Ġbecame": 1044,
      "Ġgoodbye": 1045,
      "Ġface": 1046,
      "Ġplace": 1047,
      "ange": 1048,
      "Ġhop": 1049,
      "Ġhigh": 1050,
      "Ġam": 1051,
      "Look": 1052,
      "aught": 1053,
      "ĠR": 1054,
      "Ġcloser": 1055,
      "Ġstore": 1056,
      "Ġwarm": 1057,
      "Ġdoes": 1058,
      "Ġcr": 1059,
      "Ġdress": 1060,
      "Sara": 1061,
      "unny": 1062,
      "Ġcurious": 1063,
      "Ġmag": 1064,
      "ila": 1065,
      "Jo": 1066,
      "Ġcook": 1067,
      "Ġbel": 1068,
      "Ġforg": 1069,
      "Ġtell": 1070,
      "Ġfav": 1071,
      "ndma": 1072,
      "ass": 1073,
      "ount": 1074,
      "co": 1075,
      "Ġthree": 1076,
      "leep": 1077,
      "Ġnight": 1078,
      "Ġopen": 1079,
      "Ġcake": 1080,
      "more": 1081,
      "Ġhere": 1082,
      "Ġanymore": 1083,
      "Ġblock": 1084,
      "Ġfirst": 1085,
      "itc": 1086,
      "Ġbus": 1087,
      "Ġpull": 1088,
      "iss": 1089,
      "ached": 1090,
      "Her": 1091,
      "ired": 1092,
      "Ġbutter": 1093,
      "Ġz": 1094,
      "imes": 1095,
      "ĠTh": 1096,
      "orn": 1097,
      "Ġsweet": 1098,
      "Ġpain": 1099,
      "Ġkid": 1100,
      "Ġgrabbed": 1101,
      "Can": 1102,
      "Ġpu": 1103,
      "isy": 1104,
      "Ġonly": 1105,
      "Ġmon": 1106,
      "Ġlea": 1107,
      "Ġfell": 1108,
      "Ġba": 1109,
      "Ġru": 1110,
      "Ġcont": 1111,
      "Ġbirds": 1112,
      "Ġjumped": 1113,
      "Ġglad": 1114,
      "Ġbit": 1115,
      "Ġsand": 1116,
      "itchen": 1117,
      "Ġkitchen": 1118,
      "Ġhelped": 1119,
      "Ġsees": 1120,
      "Ġfire": 1121,
      "Ġper": 1122,
      "Ġflo": 1123,
      "Ġstop": 1124,
      "ĠSarah": 1125,
      "Ġhappened": 1126,
      "Ġsing": 1127,
      "Ġgrass": 1128,
      "Ġbunny": 1129,
      "Ġshouted": 1130,
      "Ġstory": 1131,
      "ĠLet": 1132,
      "Ġtri": 1133,
      "nts": 1134,
      "Ġdr": 1135,
      "air": 1136,
      "After": 1137,
      "ĠJane": 1138,
      "ppy": 1139,
      "Ġreached": 1140,
      "Ġbeh": 1141,
      "Ġrealized": 1142,
      "Ġyummy": 1143,
      "Ġbrother": 1144,
      "ĠDo": 1145,
      "Ġlady": 1146,
      "Ġmum": 1147,
      "Ġhaving": 1148,
      "Ġprin": 1149,
      "ins": 1150,
      "Ġfavor": 1151,
      "ĠAs": 1152,
      "'re": 1153,
      "Ġmess": 1154,
      "Ġfavorite": 1155,
      "Ġdraw": 1156,
      "Ġcre": 1157,
      "Ġrest": 1158,
      "Ġthrough": 1159,
      "Ġgame": 1160,
      "Ġhat": 1161,
      "Ġate": 1162,
      "Ġless": 1163,
      "Ġunderst": 1164,
      "akes": 1165,
      "ĠEveryone": 1166,
      "Ġsoft": 1167,
      "Ġpare": 1168,
      "zy": 1169,
      "Ġthing": 1170,
      "Ġreally": 1171,
      "ather": 1172,
      "Ġready": 1173,
      "Mommy": 1174,
      "Ġbegan": 1175,
      "where": 1176,
      "Ġpretend": 1177,
      "ĠCan": 1178,
      "Ġworld": 1179,
      "ĠJoe": 1180,
      "ĠThat": 1181,
      "Ġlooks": 1182,
      "ken": 1183,
      "Ġhimself": 1184,
      "Ġmagic": 1185,
      "fully": 1186,
      "Ġpap": 1187,
      "Ġdone": 1188,
      "Ġbutterf": 1189,
      "Ġmaking": 1190,
      "Ġcut": 1191,
      "Ġcoming": 1192,
      "Ġduck": 1193,
      "ater": 1194,
      "Ġpond": 1195,
      "Ġkids": 1196,
      "Ġwaved": 1197,
      "Ġwhy": 1198,
      "Ġprom": 1199,
      "Ġtired": 1200,
      "Ġfro": 1201,
      "Ġfix": 1202,
      "olly": 1203,
      "ster": 1204,
      "Ġmouse": 1205,
      "Ġworry": 1206,
      "Ġpart": 1207,
      "Ġcars": 1208,
      "Ġste": 1209,
      "Ġdelic": 1210,
      "Ġname": 1211,
      "Ġflower": 1212,
      "ign": 1213,
      "Ġfill": 1214,
      "Wow": 1215,
      "aisy": 1216,
      "Ġtouch": 1217,
      "eddy": 1218,
      "Ġfunny": 1219,
      "Ġcatch": 1220,
      "bo": 1221,
      "Ġused": 1222,
      "sh": 1223,
      "Ġseen": 1224,
      "Ġhair": 1225,
      "ĠJohn": 1226,
      "Ġtast": 1227,
      "ient": 1228,
      "Ġtop": 1229,
      "Ġparents": 1230,
      "rel": 1231,
      "Ġanother": 1232,
      "Ġhold": 1233,
      "Ġhopped": 1234,
      "Ġcried": 1235,
      "iver": 1236,
      "uff": 1237,
      "oney": 1238,
      "mer": 1239,
      "Ġdoing": 1240,
      "Ġcool": 1241,
      "Ġblocks": 1242,
      "hy": 1243,
      "\".": 1244,
      "Ġpus": 1245,
      "Ġsurprise": 1246,
      "Ġlight": 1247,
      "Ġgreen": 1248,
      "As": 1249,
      "Ġthank": 1250,
      "Ġlesson": 1251,
      "Timmy": 1252,
      "ation": 1253,
      "Ġread": 1254,
      "Ġfloor": 1255,
      "Ġdin": 1256,
      "Ġgi": 1257,
      "Ġwood": 1258,
      "Ġfull": 1259,
      "Don": 1260,
      "Ġdri": 1261,
      "ards": 1262,
      "Ġtrees": 1263,
      "Ġrunning": 1264,
      "Ġwindow": 1265,
      "Ġworked": 1266,
      "Ġyears": 1267,
      "Ġcra": 1268,
      "Ġdro": 1269,
      "Ġ-": 1270,
      "Ġdark": 1271,
      "Ġbehind": 1272,
      "Ġlikes": 1273,
      "Ġsmell": 1274,
      "Ġspot": 1275,
      "Ġwished": 1276,
      "Ġpaper": 1277,
      "ued": 1278,
      "Ġyellow": 1279,
      "andy": 1280,
      "Ġbow": 1281,
      "ul": 1282,
      "ren": 1283,
      "Ġswim": 1284,
      "John": 1285,
      "Ġhappily": 1286,
      "Ġbag": 1287,
      "Ġsat": 1288,
      "Ġsho": 1289,
      "Sam": 1290,
      "Ġsleep": 1291,
      "aring": 1292,
      "Ġsurprised": 1293,
      "ely": 1294,
      "Ġfrog": 1295,
      "Ġbutterfly": 1296,
      "ike": 1297,
      "Ġswing": 1298,
      "Ġset": 1299,
      "Ġcarefully": 1300,
      "ĠIn": 1301,
      "Ġslow": 1302,
      "Ġremembered": 1303,
      "Ġlost": 1304,
      "Ġcold": 1305,
      "Ġheld": 1306,
      "ello": 1307,
      "Hello": 1308,
      "Ġhole": 1309,
      "Ġice": 1310,
      "Ġlaugh": 1311,
      "rew": 1312,
      "Ġneeded": 1313,
      "Ġbuy": 1314,
      "Ġperf": 1315,
      "Ġleft": 1316,
      "ons": 1317,
      "Ġmove": 1318,
      "reed": 1319,
      "cess": 1320,
      "Ġanything": 1321,
      "Ġdream": 1322,
      "Ġtall": 1323,
      "Ġenjoyed": 1324,
      "Ġwrong": 1325,
      "Ġarri": 1326,
      "uit": 1327,
      "Ġhear": 1328,
      "Ġfair": 1329,
      "Ġair": 1330,
      "Ġfollowed": 1331,
      "inally": 1332,
      "Ġbooks": 1333,
      "ross": 1334,
      "Ġel": 1335,
      "Ġchildren": 1336,
      "Ġhun": 1337,
      "Ġdelicious": 1338,
      "Ġtable": 1339,
      "Ġfinished": 1340,
      "Ġcontin": 1341,
      "Ġfriendly": 1342,
      "Ġdir": 1343,
      "Ġhot": 1344,
      "Ġsnow": 1345,
      "Ġherself": 1346,
      "ds": 1347,
      "lf": 1348,
      "ĠAfter": 1349,
      "Ġhill": 1350,
      "ens": 1351,
      "Ġunderstand": 1352,
      "Ġplease": 1353,
      "Ġclose": 1354,
      "ined": 1355,
      "Ġhid": 1356,
      "Ġarrived": 1357,
      "Ġcast": 1358,
      "Ġelse": 1359,
      "Ġarm": 1360,
      "Ġbaby": 1361,
      "Ġwonderful": 1362,
      "Ġmight": 1363,
      "Ġgent": 1364,
      "Ġtight": 1365,
      "Ġforgot": 1366,
      "sp": 1367,
      "ield": 1368,
      "Ġbug": 1369,
      "ĠSally": 1370,
      "Ġcolors": 1371,
      "Ġrel": 1372,
      "Ġbuild": 1373,
      "Ġbroken": 1374,
      "ĠDaisy": 1375,
      "Ġable": 1376,
      "Ġgone": 1377,
      "av": 1378,
      "ner": 1379,
      "ĠNow": 1380,
      "ĠBenny": 1381,
      "ĠLila": 1382,
      "Ġyes": 1383,
      "atter": 1384,
      "Ġsong": 1385,
      "Then": 1386,
      "ich": 1387,
      "Ġwall": 1388,
      "Ġsquir": 1389,
      "Ġfilled": 1390,
      "Ġagreed": 1391,
      "Ġsomeone": 1392,
      "Jack": 1393,
      "Ġcontinued": 1394,
      "room": 1395,
      "Ġcreat": 1396,
      "asure": 1397,
      "'ll": 1398,
      "Ġcount": 1399,
      "Ġwants": 1400,
      "Ġsquirrel": 1401,
      "ĠEm": 1402,
      "Ġpink": 1403,
      "Ġleaves": 1404,
      "ask": 1405,
      "Ġenough": 1406,
      "ey": 1407,
      "ĠThere": 1408,
      "ĠTommy": 1409,
      "Ġlion": 1410,
      "From": 1411,
      "ama": 1412,
      "ee": 1413,
      "OK": 1414,
      "Ġmorning": 1415,
      "Ġvis": 1416,
      "Ġmoment": 1417,
      "Ġfinally": 1418,
      "Ġgetting": 1419,
      "Ġstayed": 1420,
      "Ġcookies": 1421,
      "Ġbreak": 1422,
      "app": 1423,
      "Ġpoin": 1424,
      "ance": 1425,
      "Ġbeach": 1426,
      "ĠK": 1427,
      "Ġfew": 1428,
      "ĠMaybe": 1429,
      "Ġscary": 1430,
      "Ġfight": 1431,
      "Ġsometimes": 1432,
      "row": 1433,
      "ash": 1434,
      "ries": 1435,
      "ced": 1436,
      "red": 1437,
      "Ġturned": 1438,
      "Ġhungry": 1439,
      "Ġfall": 1440,
      "Ġdinner": 1441,
      "gon": 1442,
      "Ġmother": 1443,
      "Ġgrandma": 1444,
      "Ġju": 1445,
      "Ġwet": 1446,
      "ĠWhat": 1447,
      "Ġamazing": 1448,
      "apped": 1449,
      "Ġtrying": 1450,
      "His": 1451,
      "Ġcream": 1452,
      "Ġdaddy": 1453,
      "Ġperfect": 1454,
      "Ġpi": 1455,
      "Ġmakes": 1456,
      "Ġcastle": 1457,
      "Ġothers": 1458,
      "At": 1459,
      "Ġclimbed": 1460,
      "key": 1461,
      "oup": 1462,
      "ĠThis": 1463,
      "This": 1464,
      "Ġpictures": 1465,
      "icy": 1466,
      "Ġcomp": 1467,
      "amp": 1468,
      "Ġtalk": 1469,
      "Ġmet": 1470,
      "Ġmus": 1471,
      "Ġwhite": 1472,
      "oom": 1473,
      "Ġlistened": 1474,
      "Ġsmiles": 1475,
      "man": 1476,
      "Ġfur": 1477,
      "Ġballoon": 1478,
      "Ġclot": 1479,
      "oring": 1480,
      "ĠGra": 1481,
      "Ġalone": 1482,
      "Ġclothes": 1483,
      "Ġpol": 1484,
      "ĠBilly": 1485,
      "lc": 1486,
      "Ġtail": 1487,
      "Ġjoy": 1488,
      "ated": 1489,
      "rot": 1490,
      "Oh": 1491,
      "Ġpuppy": 1492,
      "Ġspl": 1493,
      "ence": 1494,
      "Ġmar": 1495,
      "Ġwasn": 1496,
      "Ġbrought": 1497,
      "Ġdeep": 1498,
      "Ġeverything": 1499,
      "Ġpet": 1500,
      "Ġsear": 1501,
      "Ġstrange": 1502,
      "ister": 1503,
      "ctor": 1504,
      "Ġspark": 1505,
      "der": 1506,
      "Ġsit": 1507,
      "Ġwoods": 1508,
      "Ġgrow": 1509,
      "Ġpulled": 1510,
      "ling": 1511,
      "Ġsail": 1512,
      "ĠTo": 1513,
      "ott": 1514,
      "Ġwon": 1515,
      "Ġplan": 1516,
      "Ġride": 1517,
      "eter": 1518,
      "Ġasks": 1519,
      "Ġfox": 1520,
      "Ġpie": 1521,
      "Ġdanger": 1522,
      "Ġtreat": 1523,
      "uffy": 1524,
      "Ġroll": 1525,
      "Ġvisit": 1526,
      "ĠAmy": 1527,
      "os": 1528,
      "Ġleave": 1529,
      "med": 1530,
      "ĠJen": 1531,
      "Ġpat": 1532,
      "ucky": 1533,
      "Ġmusic": 1534,
      "Ġamazed": 1535,
      "Ġwaited": 1536,
      "Ġteddy": 1537,
      "Ġhide": 1538,
      "me": 1539,
      "ang": 1540,
      "ever": 1541,
      "Ġtowards": 1542,
      "Max": 1543,
      "ower": 1544,
      "Ġfield": 1545,
      "Ġland": 1546,
      "Ġpre": 1547,
      "Ġflying": 1548,
      "zz": 1549,
      "Ġpen": 1550,
      "Ġsilly": 1551,
      "Ġshared": 1552,
      "Ġruns": 1553,
      "ained": 1554,
      "Ġowner": 1555,
      "Ġcloud": 1556,
      "ape": 1557,
      "Ġliving": 1558,
      "ugg": 1559,
      "Ġqui": 1560,
      "ames": 1561,
      "Ġjob": 1562,
      "Ġpromised": 1563,
      "Okay": 1564,
      "Ġbelie": 1565,
      "igg": 1566,
      "Ġmoral": 1567,
      "Ġgu": 1568,
      "Ġside": 1569,
      "gs": 1570,
      "orm": 1571,
      "Ġlake": 1572,
      "ol": 1573,
      "Ġpa": 1574,
      "Ġthinks": 1575,
      "Maybe": 1576,
      "cket": 1577,
      "ope": 1578,
      "Ġpaint": 1579,
      "Ġsec": 1580,
      "thy": 1581,
      "Ġsister": 1582,
      "ually": 1583,
      "Ġparty": 1584,
      "Ġquiet": 1585,
      "ises": 1586,
      "Ġmust": 1587,
      "cle": 1588,
      "Ġrace": 1589,
      "ĠJim": 1590,
      "avy": 1591,
      "Ġmoney": 1592,
      "Ġwear": 1593,
      "sw": 1594,
      "Ġworried": 1595,
      "ased": 1596,
      "up": 1597,
      "Ġansw": 1598,
      "unch": 1599,
      "Ġslowly": 1600,
      "Ġpot": 1601,
      "eces": 1602,
      "Ġcolorful": 1603,
      "Ġfaster": 1604,
      "Ġgrate": 1605,
      "Ġow": 1606,
      "Ġdance": 1607,
      "Ġpieces": 1608,
      "Ġbran": 1609,
      "Ġbott": 1610,
      "Ġwelc": 1611,
      "Ġbroke": 1612,
      "Ġcup": 1613,
      "ix": 1614,
      "Ġgrateful": 1615,
      "Ġgif": 1616,
      "Ġsuch": 1617,
      "Ġbigger": 1618,
      "ze": 1619,
      "Ġtrain": 1620,
      "ph": 1621,
      "fort": 1622,
      "Ġsnack": 1623,
      "Ġcho": 1624,
      "Ġreach": 1625,
      "Ġblank": 1626,
      "ĠAll": 1627,
      "Ġmonster": 1628,
      "Ġpro": 1629,
      "Ġplant": 1630,
      "Ġjoin": 1631,
      "Ġriver": 1632,
      "Ġblack": 1633,
      "less": 1634,
      "Ġwin": 1635,
      "Ġcandy": 1636,
      "ire": 1637,
      "Ġblanket": 1638,
      "Ġscream": 1639,
      "Ġtreasure": 1640,
      "Ġmagical": 1641,
      "ear": 1642,
      "Ġve": 1643,
      "Ġprincess": 1644,
      "Ġele": 1645,
      "Ġsmart": 1646,
      "Ġbike": 1647,
      "Ġdangerous": 1648,
      "Ġsign": 1649,
      "Ġdragon": 1650,
      "Ġacross": 1651,
      "Ġmonkey": 1652,
      "Sure": 1653,
      "Ġbar": 1654,
      "Ġeverywhere": 1655,
      "Ġmost": 1656,
      "ĠDaddy": 1657,
      "Ġhelping": 1658,
      "Ġnap": 1659,
      "Ġfarmer": 1660,
      "outh": 1661,
      "Ġem": 1662,
      "Ġmouth": 1663,
      "Why": 1664,
      "set": 1665,
      "Ġdisapp": 1666,
      "Ġwords": 1667,
      "Ġje": 1668,
      "ipped": 1669,
      "Ġstre": 1670,
      "ored": 1671,
      "Hi": 1672,
      "Ġtower": 1673,
      "ming": 1674,
      "eared": 1675,
      "Ġthrew": 1676,
      "Ġstepped": 1677,
      "Ġheavy": 1678,
      "Ġdolls": 1679,
      "Ġpass": 1680,
      "Ġbite": 1681,
      "de": 1682,
      "Ġbowl": 1683,
      "Ġdirty": 1684,
      "Ġtwins": 1685,
      "Ġsame": 1686,
      "Ġcrying": 1687,
      "Ġbee": 1688,
      "Ġspr": 1689,
      "ere": 1690,
      "Ġdoctor": 1691,
      "ident": 1692,
      "ĠMolly": 1693,
      "Ġacc": 1694,
      "Ġbelieve": 1695,
      "Ġwouldn": 1696,
      "Ġbath": 1697,
      "Ġheal": 1698,
      "ĠFl": 1699,
      "chool": 1700,
      "Ġhig": 1701,
      "bble": 1702,
      "Ġclosed": 1703,
      "Ġcarrot": 1704,
      "Ġheart": 1705,
      "Mia": 1706,
      "Ġstuck": 1707,
      "cked": 1708,
      "Ġcour": 1709,
      "Ġfruit": 1710,
      "Ġbuck": 1711,
      "Ġmin": 1712,
      "Ġatt": 1713,
      "Ġteac": 1714,
      "Ġschool": 1715,
      "ĠMr": 1716,
      "Ġbrown": 1717,
      "Ġhoped": 1718,
      "ĠJill": 1719,
      "asket": 1720,
      "iting": 1721,
      "Ġsuddenly": 1722,
      "Ġbasket": 1723,
      "Ġfeels": 1724,
      "Ġmix": 1725,
      "Ġchair": 1726,
      "Ġeating": 1727,
      "Ġtown": 1728,
      "Ġcourse": 1729,
      "Ġcray": 1730,
      "Ġclapped": 1731,
      "Ġcoll": 1732,
      "Ġgentle": 1733,
      "Ġfairy": 1734,
      "pping": 1735,
      "Ġbutt": 1736,
      "Ġpack": 1737,
      "ventually": 1738,
      "Ġstand": 1739,
      "ier": 1740,
      "Ġdrove": 1741,
      "ors": 1742,
      "Ġpushed": 1743,
      "br": 1744,
      "issed": 1745,
      "Ġwelcome": 1746,
      "ts": 1747,
      "Ġswings": 1748,
      "Ġwithout": 1749,
      "Ġhigher": 1750,
      "Ġtoday": 1751,
      "Ġneigh": 1752,
      "Ġpocket": 1753,
      "orrow": 1754,
      "Ġhit": 1755,
      "Ġteacher": 1756,
      "Ġneighb": 1757,
      "Ġpers": 1758,
      "ord": 1759,
      "Ġsmo": 1760,
      "Ġgames": 1761,
      "ourn": 1762,
      "Ġpiece": 1763,
      "ract": 1764,
      "Ġcheered": 1765,
      "Ġwings": 1766,
      "Ġforget": 1767,
      "Ġben": 1768,
      "Ġexplained": 1769,
      "Ġjourn": 1770,
      "Ġyard": 1771,
      "Ġlonger": 1772,
      "Ġfree": 1773,
      "Finally": 1774,
      "ible": 1775,
      "Ġcorn": 1776,
      "Ġaccident": 1777,
      "ho": 1778,
      "ead": 1779,
      "Ġdry": 1780,
      "Ġalong": 1781,
      "umb": 1782,
      "ĠMary": 1783,
      "ment": 1784,
      "cy": 1785,
      "Ġnoises": 1786,
      "itting": 1787,
      "Ġneck": 1788,
      "Ġsang": 1789,
      "Ġinst": 1790,
      "Ġlate": 1791,
      "Ġhappen": 1792,
      "Ġthrow": 1793,
      "Ġhugs": 1794,
      "Lila": 1795,
      "Ġyoung": 1796,
      "Ġturns": 1797,
      "Ġstories": 1798,
      "vel": 1799,
      "Ġshoes": 1800,
      "phant": 1801,
      "Ġlon": 1802,
      "Ġmiss": 1803,
      "Ġadventures": 1804,
      "Ġsinging": 1805,
      "Ġtrou": 1806,
      "Ġwell": 1807,
      "Ġsea": 1808,
      "Ġlunch": 1809,
      "Ġapple": 1810,
      "Ġupset": 1811,
      "Ġlonely": 1812,
      "Ġkey": 1813,
      "ches": 1814,
      "Ġbelong": 1815,
      "bby": 1816,
      "oun": 1817,
      "Ġdist": 1818,
      "Ġsecret": 1819,
      "Ġstreet": 1820,
      "Ġplac": 1821,
      "Ġelephant": 1822,
      "Ġtom": 1823,
      "Ġwish": 1824,
      "Ġfence": 1825,
      "Ġmine": 1826,
      "ountain": 1827,
      "Ġmat": 1828,
      "ek": 1829,
      "Ġshap": 1830,
      "Ġshook": 1831,
      "Ġexploring": 1832,
      "Ġmoved": 1833,
      "Ġpurp": 1834,
      "Ġyear": 1835,
      "aughty": 1836,
      "Ġnearby": 1837,
      "Ġnaughty": 1838,
      "Ġstar": 1839,
      "Ġsoup": 1840,
      "Ġshop": 1841,
      "Ġwise": 1842,
      "ĠGrandma": 1843,
      "Ġstars": 1844,
      "Ġowl": 1845,
      "Ġbring": 1846,
      "fused": 1847,
      "Ġjar": 1848,
      "bow": 1849,
      "Do": 1850,
      "ocked": 1851,
      "Ġinv": 1852,
      "Ġexp": 1853,
      "Ġwhe": 1854,
      "yard": 1855,
      "Ġcaught": 1856,
      "Ġsu": 1857,
      "ward": 1858,
      "Ġbackyard": 1859,
      "Ġseemed": 1860,
      "ail": 1861,
      "Ġes": 1862,
      "Ġrelie": 1863,
      "Ġdropped": 1864,
      "Ġph": 1865,
      "Ġrocks": 1866,
      "ĠEmma": 1867,
      "aughter": 1868,
      "llo": 1869,
      "Ġ3": 1870,
      "ush": 1871,
      "Ġdrink": 1872,
      "Ġbucket": 1873,
      "Ġdes": 1874,
      "Ġca": 1875,
      "adow": 1876,
      "ces": 1877,
      "Ġpurple": 1878,
      "Ġswam": 1879,
      "Ġfarm": 1880,
      "Ġresp": 1881,
      "Ġtaking": 1882,
      "Ġmail": 1883,
      "Ġorange": 1884,
      "Ġthough": 1885,
      "ions": 1886,
      "And": 1887,
      "Ġshapes": 1888,
      "Ġpast": 1889,
      "col": 1890,
      "Ġcow": 1891,
      "Ġstu": 1892,
      "ĠThank": 1893,
      "Ġwoke": 1894,
      "Ġbench": 1895,
      "Ġsounds": 1896,
      "Ġaf": 1897,
      "ung": 1898,
      "ity": 1899,
      "sy": 1900,
      "Ġwondered": 1901,
      "Ġbusy": 1902,
      "Ġfit": 1903,
      "Ġtiny": 1904,
      "Ġob": 1905,
      "Ġnose": 1906,
      "Ġsitting": 1907,
      "Ġnest": 1908,
      "Ġrainbow": 1909,
      "ese": 1910,
      "Ġdaughter": 1911,
      "Ġtakes": 1912,
      "Ġmark": 1913,
      "Ġmad": 1914,
      "fish": 1915,
      "Ġcou": 1916,
      "Ġkite": 1917,
      "to": 1918,
      "ĠO": 1919,
      "read": 1920,
      "Ġholding": 1921,
      "weet": 1922,
      "Ġnothing": 1923,
      "Ġcomes": 1924,
      "Ġjuice": 1925,
      "Ġarms": 1926,
      "thday": 1927,
      "Ġpig": 1928,
      "Ġcoat": 1929,
      "og": 1930,
      "ĠFluffy": 1931,
      "ining": 1932,
      "Ġcir": 1933,
      "ĠInside": 1934,
      "Ġbranch": 1935,
      "raid": 1936,
      "Ġrelieved": 1937,
      "pper": 1938,
      "Ġafraid": 1939,
      "cing": 1940,
      "ose": 1941,
      "idge": 1942,
      "Ġdriver": 1943,
      "Ġmil": 1944,
      "Ġforever": 1945,
      "vered": 1946,
      "Ġspoon": 1947,
      "Ġcute": 1948,
      "Ġcarry": 1949,
      "Ġgift": 1950,
      "Ġsick": 1951,
      "Ġboun": 1952,
      "Ġlift": 1953,
      "sting": 1954,
      "Ġpeace": 1955,
      "Of": 1956,
      "Ġpromise": 1957,
      "ours": 1958,
      "ĠFinally": 1959,
      "Ġhuge": 1960,
      "Ġact": 1961,
      "Ġtou": 1962,
      "Ġtouched": 1963,
      "Ġpatient": 1964,
      "unt": 1965,
      "Ġking": 1966,
      "Ġround": 1967,
      "cer": 1968,
      "sc": 1969,
      "Ġhello": 1970,
      "ĠCome": 1971,
      "Ġbirthday": 1972,
      "Ġfing": 1973,
      "Ġletter": 1974,
      "Ġgrab": 1975,
      "Ġintere": 1976,
      "Ġexciting": 1977,
      "let": 1978,
      "Ġsunny": 1979,
      "Ġcheese": 1980,
      "eth": 1981,
      "Ġonto": 1982,
      "Ġlaughing": 1983,
      "Ġdays": 1984,
      "board": 1985,
      "Ġjourney": 1986,
      "Ġgigg": 1987,
      "Ġband": 1988,
      "Ġcreature": 1989,
      "Ġdisco": 1990,
      "ĠMama": 1991,
      "ittens": 1992,
      "Ġbread": 1993,
      "Hey": 1994,
      "arp": 1995,
      "Ġret": 1996,
      "Ġimag": 1997,
      "ped": 1998,
      "shine": 1999,
      "Ġlife": 2000,
      "Ġkick": 2001,
      "Ġbush": 2002,
      "gged": 2003,
      "Ġhope": 2004,
      "Ġpower": 2005,
      "Ġcraw": 2006,
      "Ġshell": 2007,
      "Ġcozy": 2008,
      "Ġswimming": 2009,
      "Tommy": 2010,
      "Ġinc": 2011,
      "Ġbottle": 2012,
      "Ġmist": 2013,
      "Ġsharp": 2014,
      "Ġwra": 2015,
      "gg": 2016,
      "Ġsuc": 2017,
      "Ġcomfort": 2018,
      "Ġinstead": 2019,
      "Ġwhist": 2020,
      "Ġmilk": 2021,
      "Ġwatching": 2022,
      "Ġreturn": 2023,
      "Ġear": 2024,
      "ness": 2025,
      "Ġspin": 2026,
      "alm": 2027,
      "Ġaccidentally": 2028,
      "Ġeas": 2029,
      "Ġsunshine": 2030,
      "ten": 2031,
      "ĠSoon": 2032,
      "Ġcave": 2033,
      "pa": 2034,
      "ĠSammy": 2035,
      "Ġspo": 2036,
      "Ġputs": 2037,
      "Ġlucky": 2038,
      "Ġtalked": 2039,
      "Ġhoney": 2040,
      "Ġpudd": 2041,
      "Ġpointed": 2042,
      "Ġgives": 2043,
      "Ġcollect": 2044,
      "Ġgather": 2045,
      "itch": 2046,
      "Ġroad": 2047,
      "Ġent": 2048,
      "Later": 2049,
      "Ġsmiling": 2050,
      "Ġbought": 2051,
      "Ġanyone": 2052,
      "Ġhor": 2053,
      "Ġsearched": 2054,
      "Ġlater": 2055,
      "Ġce": 2056,
      "Ġfan": 2057,
      "Ġsandw": 2058,
      "ball": 2059,
      "round": 2060,
      "itten": 2061,
      "Ġapples": 2062,
      "els": 2063,
      "blem": 2064,
      "irt": 2065,
      "Ġproblem": 2066,
      "Ġmeet": 2067,
      "ize": 2068,
      "Bob": 2069,
      "Ġmach": 2070,
      "Lucy": 2071,
      "Ġwom": 2072,
      "Ġloves": 2073,
      "Ġinteresting": 2074,
      "Good": 2075,
      "ÅĵI": 2076,
      "Ġwoman": 2077,
      "Ġplane": 2078,
      "ĠTweet": 2079,
      "Ġkiss": 2080,
      "Ġpres": 2081,
      "Ġhealthy": 2082,
      "eb": 2083,
      "Ġpile": 2084,
      "Ġtasty": 2085,
      "Ġducks": 2086,
      "ub": 2087,
      "Ġvill": 2088,
      "ĠJimmy": 2089,
      "ove": 2090,
      "Ġwide": 2091,
      "ont": 2092,
      "amed": 2093,
      "aur": 2094,
      "Ġadm": 2095,
      "Ġeag": 2096,
      "Ġspid": 2097,
      "Ġclever": 2098,
      "Ġcrayons": 2099,
      "Ġprot": 2100,
      "Ġmatter": 2101,
      "Ġtrouble": 2102,
      "erly": 2103,
      "ndpa": 2104,
      "Ġzoom": 2105,
      "Ġclouds": 2106,
      "owed": 2107,
      "ĠWith": 2108,
      "Ġstorm": 2109,
      "Ġperson": 2110,
      "Ġpath": 2111,
      "cks": 2112,
      "Ġpill": 2113,
      "Ġfeather": 2114,
      "Ġrope": 2115,
      "Ġpop": 2116,
      "Ġshining": 2117,
      "Ġprotect": 2118,
      "Ġsmelled": 2119,
      "Ġfront": 2120,
      "Ġhon": 2121,
      "Ġbutton": 2122,
      "Ġpract": 2123,
      "Ġspotted": 2124,
      "Ġscreamed": 2125,
      "Ġzoo": 2126,
      "Ġminut": 2127,
      "ĠEll": 2128,
      "Ġpresent": 2129,
      "Come": 2130,
      "Ġap": 2131,
      "Ġmud": 2132,
      "Ġval": 2133,
      "Ġrespect": 2134,
      "Ġsaf": 2135,
      "Ġdanced": 2136,
      "Ġcheer": 2137,
      "Ġorgan": 2138,
      "Jim": 2139,
      "Ġpar": 2140,
      "Ġquest": 2141,
      "ond": 2142,
      "Ġappeared": 2143,
      "Ġwhich": 2144,
      "Ġpuzz": 2145,
      "Ġseat": 2146,
      "Molly": 2147,
      "Ġteach": 2148,
      "Ġmyster": 2149,
      "Ġsnowman": 2150,
      "Just": 2151,
      "isa": 2152,
      "Ġsnake": 2153,
      "Ġthin": 2154,
      "ert": 2155,
      "ale": 2156,
      "Ġwild": 2157,
      "Ġasleep": 2158,
      "Ġlovely": 2159,
      "Ġsur": 2160,
      "Ġanswer": 2161,
      "epend": 2162,
      "Ġwearing": 2163,
      "Ġgently": 2164,
      "Ġneighbor": 2165,
      "oose": 2166,
      "Mum": 2167,
      "Ġbark": 2168,
      "Ġhorse": 2169,
      "Ġgiant": 2170,
      "Ġplaces": 2171,
      "Ġgoes": 2172,
      "Ġwhole": 2173,
      "ometimes": 2174,
      "Ġsearch": 2175,
      "Ġsplas": 2176,
      "Every": 2177,
      "St": 2178,
      "Ġcorner": 2179,
      "Ġimpress": 2180,
      "ular": 2181,
      "Ġdirt": 2182,
      "Ġmed": 2183,
      "Ġshr": 2184,
      "een": 2185,
      "Ġtries": 2186,
      "Ġtrip": 2187,
      "Ġconfused": 2188,
      "ĠEmily": 2189,
      "Ġlive": 2190,
      "Ġmind": 2191,
      "Ġdi": 2192,
      "ato": 2193,
      "la": 2194,
      "Ġrolled": 2195,
      "Ġcard": 2196,
      "Ġslid": 2197,
      "Ġtasted": 2198,
      "nic": 2199,
      "cean": 2200,
      "Ġash": 2201,
      "Ġocean": 2202,
      "In": 2203,
      "Ġsupp": 2204,
      "Ġforgive": 2205,
      "Ġpicnic": 2206,
      "Ġrude": 2207,
      "Ġmachine": 2208,
      "ex": 2209,
      "Ġspent": 2210,
      "ĠGo": 2211,
      "Ġdrive": 2212,
      "Ġteeth": 2213,
      "Ġser": 2214,
      "ssed": 2215,
      "itty": 2216,
      "Ġphone": 2217,
      "ĠHow": 2218,
      "Ġoven": 2219,
      "Ġpan": 2220,
      "Ġpour": 2221,
      "Ġlast": 2222,
      "Ġcalm": 2223,
      "Ġpretended": 2224,
      "Ġdelight": 2225,
      "Ġcookie": 2226,
      "Ġfurry": 2227,
      "Ġspider": 2228,
      "izz": 2229,
      "Ġfeet": 2230,
      "Ġfaces": 2231,
      "unk": 2232,
      "Ġlay": 2233,
      "Ġworm": 2234,
      "Ġring": 2235,
      "ĠCh": 2236,
      "Ġrec": 2237,
      "umber": 2238,
      "Ġhelpful": 2239,
      "Ġlad": 2240,
      "ĠMittens": 2241,
      "Ġeventually": 2242,
      "Ġwip": 2243,
      "Ġchick": 2244,
      "Ġwave": 2245,
      "Ġmountain": 2246,
      "Ġsal": 2247,
      "Ġban": 2248,
      "Ġemb": 2249,
      "Ġtalking": 2250,
      "ones": 2251,
      "Ġrob": 2252,
      "Ġfold": 2253,
      "Ġshy": 2254,
      "Ġcart": 2255,
      "Ġtomorrow": 2256,
      "Ġsel": 2257,
      "Ġchocol": 2258,
      "Ġtid": 2259,
      "ĠJenny": 2260,
      "Ġspread": 2261,
      "Ġvillage": 2262,
      "arge": 2263,
      "ife": 2264,
      "Ġremind": 2265,
      "Ġign": 2266,
      "Ġbubble": 2267,
      "Ġtun": 2268,
      "Ġcoin": 2269,
      "Ġfoot": 2270,
      "Ġcouch": 2271,
      "Ġwrite": 2272,
      "Ġladder": 2273,
      "Ġbuilding": 2274,
      "Ġpush": 2275,
      "Ġfighting": 2276,
      "Ġsmooth": 2277,
      "Ġtreats": 2278,
      "hile": 2279,
      "Ġwore": 2280,
      "Ġchased": 2281,
      "Ġtool": 2282,
      "ighed": 2283,
      "Ġblew": 2284,
      "Ġstret": 2285,
      "lex": 2286,
      "My": 2287,
      "Soon": 2288,
      "arra": 2289,
      "Ġbugs": 2290,
      "Ġembarra": 2291,
      "Ġhiding": 2292,
      "Ġpool": 2293,
      "Ġcross": 2294,
      "Ġwaiting": 2295,
      "oph": 2296,
      "Ġknee": 2297,
      "Ġrobot": 2298,
      "Ġneckl": 2299,
      "Ġstep": 2300,
      "Ġpuddle": 2301,
      "mo": 2302,
      "Ġfinish": 2303,
      "Ġshelf": 2304,
      "Ġbell": 2305,
      "Ġcoo": 2306,
      "not": 2307,
      "als": 2308,
      "Ġsongs": 2309,
      "Ġstir": 2310,
      "ator": 2311,
      "Ġwhenever": 2312,
      "Ġselfish": 2313,
      "Ġant": 2314,
      "Ġmaybe": 2315,
      "Ġcannot": 2316,
      "Ġstring": 2317,
      "Ġstra": 2318,
      "Ġchocolate": 2319,
      "ult": 2320,
      "Ġsol": 2321,
      "Ġtaste": 2322,
      "Ġspe": 2323,
      "Ġrep": 2324,
      "Ġhum": 2325,
      "Ġple": 2326,
      "Ġlarge": 2327,
      "Mama": 2328,
      "Ġpaw": 2329,
      "Ġnet": 2330,
      "ĠJake": 2331,
      "box": 2332,
      "Ġsack": 2333,
      "Ġleaf": 2334,
      "Ġscar": 2335,
      "Ġfixed": 2336,
      "ĠSt": 2337,
      "lebr": 2338,
      "Ġbarked": 2339,
      "Ġtidy": 2340,
      "umpy": 2341,
      "Ġbanan": 2342,
      "Ġwash": 2343,
      "ĠEverywhere": 2344,
      "ĠSometimes": 2345,
      "Ġspray": 2346,
      "Ġstone": 2347,
      "old": 2348,
      "ĠJust": 2349,
      "hnn": 2350,
      "Ġcelebr": 2351,
      "Ġgen": 2352,
      "Ġcloth": 2353,
      "Please": 2354,
      "Ġcrab": 2355,
      "ĠLe": 2356,
      "Dad": 2357,
      "Ġpeaceful": 2358,
      "Ġcolour": 2359,
      "ungle": 2360,
      "ĠPlease": 2361,
      "hnny": 2362,
      "Ġhel": 2363,
      "ird": 2364,
      "oin": 2365,
      "lice": 2366,
      "Ġmissed": 2367,
      "Ġdeter": 2368,
      "Ġjungle": 2369,
      "Ġ'": 2370,
      "iger": 2371,
      "arm": 2372,
      "Now": 2373,
      "Ġlanded": 2374,
      "Ġdeterm": 2375,
      "Ġforward": 2376,
      "Ġembarrassed": 2377,
      "Ġnecklace": 2378,
      "Sarah": 2379,
      "Ġhonest": 2380,
      "Ġjumping": 2381,
      "airs": 2382,
      "elly": 2383,
      "Ġbat": 2384,
      "ĠTheir": 2385,
      "Ġdecor": 2386,
      "dge": 2387,
      "Ġtrust": 2388,
      "Ġhears": 2389,
      "Ġmoon": 2390,
      "orry": 2391,
      "Ġsticks": 2392,
      "ĠTV": 2393,
      "Ġshirt": 2394,
      "Ġcreative": 2395,
      "Ġsharing": 2396,
      "aking": 2397,
      "Ġtea": 2398,
      "most": 2399,
      "Ġknocked": 2400,
      "Ġcarrots": 2401,
      "Ġdisappoin": 2402,
      "Ġsuccess": 2403,
      "Ġmeadow": 2404,
      "ying": 2405,
      "getable": 2406,
      "Ġwhis": 2407,
      "Ġstood": 2408,
      "Ġgener": 2409,
      "Ġvegetable": 2410,
      "Ġbal": 2411,
      "ĠDon": 2412,
      "Ġmeant": 2413,
      "Ġlegs": 2414,
      "Ġtightly": 2415,
      "Ġbreath": 2416,
      "Ġplate": 2417,
      "Ġalmost": 2418,
      "Ġashamed": 2419,
      "ned": 2420,
      "Ġemp": 2421,
      "Ġsour": 2422,
      "Ġgray": 2423,
      "dle": 2424,
      "Ġgrew": 2425,
      "Ġtells": 2426,
      "Ġempty": 2427,
      "ĠSome": 2428,
      "Ġpillow": 2429,
      "ground": 2430,
      "ony": 2431,
      "Ġgas": 2432,
      "Ġsplash": 2433,
      "Ġwhistle": 2434,
      "ĠOn": 2435,
      "ian": 2436,
      "Ġunderstood": 2437,
      "Be": 2438,
      "Ġsheep": 2439,
      "Ġber": 2440,
      "Ġcarried": 2441,
      "den": 2442,
      "ĠLisa": 2443,
      "Ġyelled": 2444,
      "ĠWhy": 2445,
      "To": 2446,
      "Ġlem": 2447,
      "ĠTeddy": 2448,
      "ustr": 2449,
      "arl": 2450,
      "ĠAnn": 2451,
      "Ġnods": 2452,
      "erp": 2453,
      "vous": 2454,
      "Ġsave": 2455,
      "Ġpolice": 2456,
      "Ġdisappointed": 2457,
      "Ġsnacks": 2458,
      "Ġhours": 2459,
      "Ġnut": 2460,
      "ital": 2461,
      "Ġwhisp": 2462,
      "Ġjew": 2463,
      "Where": 2464,
      "Ġthese": 2465,
      "hin": 2466,
      "ork": 2467,
      "Ġhosp": 2468,
      "ets": 2469,
      "Ġsparkly": 2470,
      "Ġgold": 2471,
      "Ġhospital": 2472,
      "Ġkitten": 2473,
      "ĠEven": 2474,
      "ĠMum": 2475,
      "Ġship": 2476,
      "Ġpay": 2477,
      "ina": 2478,
      "obby": 2479,
      "ĠTogether": 2480,
      "Ġbored": 2481,
      "urse": 2482,
      "Ġline": 2483,
      "Ġgenerous": 2484,
      "Ġfrustr": 2485,
      "Ġtest": 2486,
      "Ġhidden": 2487,
      "Ġtaught": 2488,
      "Ġstanding": 2489,
      "Ġrad": 2490,
      "Ġscarf": 2491,
      "iff": 2492,
      "Ġchew": 2493,
      "Ġreturned": 2494,
      "Ġminutes": 2495,
      "Ġpizz": 2496,
      "Ġknowing": 2497,
      "Ġgroup": 2498,
      "Ġhur": 2499,
      "Ġplants": 2500,
      "Ġeasy": 2501,
      "Ġblow": 2502,
      "Ġbedroom": 2503,
      "Ġpolite": 2504,
      "Ġmysterious": 2505,
      "Ġwaves": 2506,
      "Ġglass": 2507,
      "Ġsighed": 2508,
      "Ġshore": 2509,
      "Ġpri": 2510,
      "Ġseed": 2511,
      "Ġwolf": 2512,
      "usie": 2513,
      "Ġseek": 2514,
      "Ġdetermined": 2515,
      "ĠPeter": 2516,
      "kin": 2517,
      "Stop": 2518,
      "Ġpuzzle": 2519,
      "Ġpowerful": 2520,
      "Ġthankful": 2521,
      "Jane": 2522,
      "fl": 2523,
      "Ġclass": 2524,
      "Ġner": 2525,
      "ĠBe": 2526,
      "Ġpir": 2527,
      "Ġsandwich": 2528,
      "Ġfig": 2529,
      "Ġsleepy": 2530,
      "Ġprince": 2531,
      "Ġpassed": 2532,
      "Ġdrew": 2533,
      "'d": 2534,
      "Ġfinger": 2535,
      "Ġjelly": 2536,
      "Ġpizza": 2537,
      "Ġnervous": 2538,
      "Ġfrustrated": 2539,
      "Ġspicy": 2540,
      "Ġgun": 2541,
      "Ġspoil": 2542,
      "Ġmatch": 2543,
      "Ġfancy": 2544,
      "Ġmessy": 2545,
      "osaur": 2546,
      "work": 2547,
      "Ġgate": 2548,
      "There": 2549,
      "Ġbridge": 2550,
      "Ġlock": 2551,
      "Ġkissed": 2552,
      "Ġtick": 2553,
      "aul": 2554,
      "Ġcloset": 2555,
      "Ġfear": 2556,
      "Ġreg": 2557,
      "af": 2558,
      "Ġfeed": 2559,
      "Ġmot": 2560,
      "Ġsold": 2561,
      "Ġwis": 2562,
      "Ġgathered": 2563,
      "oop": 2564,
      "Ġav": 2565,
      "Ġexcite": 2566,
      "Ġpoor": 2567,
      "Ġcirc": 2568,
      "ote": 2569,
      "Ġhang": 2570,
      "Ġcaterp": 2571,
      "Ġcaterpill": 2572,
      "Ġesc": 2573,
      "Ġflag": 2574,
      "Ġpin": 2575,
      "Ġgrumpy": 2576,
      "Ġvan": 2577,
      "iddle": 2578,
      "ella": 2579,
      "Ġdinosaur": 2580,
      "Ġyourself": 2581,
      "ano": 2582,
      "issors": 2583,
      "uce": 2584,
      "Ġanswered": 2585,
      "Ġcries": 2586,
      "Are": 2587,
      "Ġoften": 2588,
      "itter": 2589,
      "ĠZ": 2590,
      "Ġtwirl": 2591,
      "selves": 2592,
      "Ġchest": 2593,
      "sist": 2594,
      "Ġscissors": 2595,
      "Ġhopping": 2596,
      "Ġtears": 2597,
      "pack": 2598,
      "gly": 2599,
      "mb": 2600,
      "Sorry": 2601,
      "Ġmummy": 2602,
      "ĠRex": 2603,
      "Ġugly": 2604,
      "era": 2605,
      "Ġburn": 2606,
      "Ġcand": 2607,
      "ensive": 2608,
      "Ġdeer": 2609,
      "Ġdrop": 2610,
      "illed": 2611,
      "Ġfil": 2612,
      "Ġexcitement": 2613,
      "izzy": 2614,
      "Ġcaterpillar": 2615,
      "Ġlit": 2616,
      "Ġworking": 2617,
      "Ġmiddle": 2618,
      "Ġexpensive": 2619,
      "Ġscr": 2620,
      "Ġsaved": 2621,
      "Ġtaken": 2622,
      "ĠBr": 2623,
      "Ġok": 2624,
      "Ġtrue": 2625,
      "Ġwagged": 2626,
      "Ġones": 2627,
      "Ġpleased": 2628,
      "Ġcrown": 2629,
      "Ġspend": 2630,
      "Ġboring": 2631,
      "Ġpicks": 2632,
      "Ġleg": 2633,
      "que": 2634,
      "oof": 2635,
      "ugar": 2636,
      "Ġvase": 2637,
      "Ġtent": 2638,
      "Ġasking": 2639,
      "body": 2640,
      "Jimmy": 2641,
      "ual": 2642,
      "ĠBl": 2643,
      "Ġbrush": 2644,
      "Ġtie": 2645,
      "ates": 2646,
      "Ġvegetables": 2647,
      "ecially": 2648,
      "Ġgiggled": 2649,
      "Ġboss": 2650,
      "Who": 2651,
      "ete": 2652,
      "Their": 2653,
      "Ġmistake": 2654,
      "Ġcage": 2655,
      "ser": 2656,
      "Ġgets": 2657,
      "light": 2658,
      "Ġrocket": 2659,
      "Ġcap": 2660,
      "Ġmir": 2661,
      "ĠLeo": 2662,
      "Ġcomfortable": 2663,
      "Ġsugar": 2664,
      "Ġeld": 2665,
      "Ġstuff": 2666,
      "Ġpacked": 2667,
      "Sp": 2668,
      "ĠJohnny": 2669,
      "Ġdancing": 2670,
      "pecially": 2671,
      "Ġespecially": 2672,
      "Ġwander": 2673,
      "Ġclown": 2674,
      "Ġmedic": 2675,
      "Ġnumber": 2676,
      "Ġpress": 2677,
      "Ġsight": 2678,
      "Ġknight": 2679,
      "ushed": 2680,
      "ggs": 2681,
      "ots": 2682,
      "Ġfruits": 2683,
      "iness": 2684,
      "Ġeggs": 2685,
      "Ġlying": 2686,
      "Ġdrum": 2687,
      "Ġfake": 2688,
      "Ġdest": 2689,
      "ror": 2690,
      "Ġmedicine": 2691,
      "Ġwalks": 2692,
      "Ġdistance": 2693,
      "aged": 2694,
      "Ġglue": 2695,
      "Ġsplashed": 2696,
      "Ġsweetie": 2697,
      "Ġbake": 2698,
      "Ġflut": 2699,
      "Ġbone": 2700,
      "Ġdrawing": 2701,
      "Ġmoving": 2702,
      "Ġdisappeared": 2703,
      "ha": 2704,
      "Ġweek": 2705,
      "ĠOK": 2706,
      "Ġlead": 2707,
      "Ġsmelly": 2708,
      "Ġclap": 2709,
      "Ġbecome": 2710,
      "Ġlemon": 2711,
      "Ġchange": 2712,
      "Ġpray": 2713,
      "Ġfeathers": 2714,
      "Ġmoms": 2715,
      "Ġlose": 2716,
      "Ġmov": 2717,
      "Ġlicked": 2718,
      "Ġcalling": 2719,
      "ĠIf": 2720,
      "Ġtwist": 2721,
      "Ġdogs": 2722,
      "Ġbathroom": 2723,
      "Ġplayground": 2724,
      "ory": 2725,
      "yal": 2726,
      "Ġfis": 2727,
      "Me": 2728,
      "Ġlazy": 2729,
      "enny": 2730,
      "Sally": 2731,
      "Ġroar": 2732,
      "Ġelderly": 2733,
      "Ġweak": 2734,
      "Ġincred": 2735,
      "Ġcri": 2736,
      "Ġgar": 2737,
      "?\".": 2738,
      "Ġbody": 2739,
      "Ġhorn": 2740,
      "Ġexam": 2741,
      "Ġcrack": 2742,
      "Gra": 2743,
      "Joe": 2744,
      "Ġquestions": 2745,
      "Ġadd": 2746,
      "Ġwrote": 2747,
      "Billy": 2748,
      "Ġyog": 2749,
      "Ġyours": 2750,
      "Ġnoisy": 2751,
      "Ġfather": 2752,
      "Ġmirror": 2753,
      "uggest": 2754,
      "Ġmic": 2755,
      "Ġnod": 2756,
      "Ġsuggest": 2757,
      "elp": 2758,
      "ating": 2759,
      "eez": 2760,
      "Ġfluffy": 2761,
      "Ġskipped": 2762,
      "Ġed": 2763,
      "Ġwheel": 2764,
      "Ġeager": 2765,
      "Ġloyal": 2766,
      "Ġlamp": 2767,
      "Ġdish": 2768,
      "Ġext": 2769,
      "Ġclear": 2770,
      "Ġfamous": 2771,
      "land": 2772,
      "Ġdig": 2773,
      "Ġstones": 2774,
      "Ġruined": 2775,
      "ĠAt": 2776,
      "ination": 2777,
      "Ġrich": 2778,
      "Ġrare": 2779,
      "Ġord": 2780,
      "ĠEnd": 2781,
      "Ġtape": 2782,
      "Ġsell": 2783,
      "Ġdrank": 2784,
      "Ġcontent": 2785,
      "Ġfigure": 2786,
      "Ġqueen": 2787,
      "Ġmarch": 2788,
      "Ġincredible": 2789,
      "Ġglow": 2790,
      "Ġmap": 2791,
      "Ġshows": 2792,
      "hip": 2793,
      "Ġrid": 2794,
      "ti": 2795,
      "Ġcheck": 2796,
      "Ġjuicy": 2797,
      "Ġsoap": 2798,
      "Ġcovered": 2799,
      "Ġind": 2800,
      "Ġballs": 2801,
      "Ġsailed": 2802,
      "imp": 2803,
      "Ġrelax": 2804,
      "Ġaw": 2805,
      "Amy": 2806,
      "Ġshoot": 2807,
      "illi": 2808,
      "Ġteam": 2809,
      "ately": 2810,
      "Ġmeasure": 2811,
      "Ġdecide": 2812,
      "Ġrealised": 2813,
      "umbled": 2814,
      "Ġdiscovered": 2815,
      "Ġcoins": 2816,
      "Ġneeds": 2817,
      "Ġborrow": 2818,
      "Ġswan": 2819,
      "Ġstraw": 2820,
      "fic": 2821,
      "Ġadventur": 2822,
      "ĠBlue": 2823,
      "Jill": 2824,
      "cept": 2825,
      "ĠNo": 2826,
      "Help": 2827,
      "Ġcleaned": 2828,
      "Ġbranches": 2829,
      "Ġtowel": 2830,
      "Ġboys": 2831,
      "Ġextra": 2832,
      "Ġham": 2833,
      "ĠLittle": 2834,
      "asing": 2835,
      "Well": 2836,
      "Ġboard": 2837,
      "Ġchicken": 2838,
      "Ġbarn": 2839,
      "Ġmod": 2840,
      "Ġtiger": 2841,
      "Ġmotor": 2842,
      "Ġtag": 2843,
      "Ġadventurous": 2844,
      "Ġjoke": 2845,
      "Ġdiffic": 2846,
      "Ġoffered": 2847,
      "Ġfine": 2848,
      "keep": 2849,
      "Ġbalance": 2850,
      "Ġlifted": 2851,
      "ique": 2852,
      "Ġbubbles": 2853,
      "Ġcolourful": 2854,
      "Ġfrown": 2855,
      "Ġturt": 2856,
      "Ġeye": 2857,
      "Ġthick": 2858,
      "Mummy": 2859,
      "Ġdifficult": 2860,
      "Ġbottom": 2861,
      "Ġtrack": 2862,
      "Ġtoug": 2863,
      "alous": 2864,
      "Ġorganized": 2865,
      "Ġcover": 2866,
      "Ġhappening": 2867,
      "Ġunique": 2868,
      "rag": 2869,
      "Ġjealous": 2870,
      "Ġdolp": 2871,
      "Ġhose": 2872,
      "port": 2873,
      "Ġknife": 2874,
      "Ġweird": 2875,
      "Ġisland": 2876,
      "ĠSusie": 2877,
      "cil": 2878,
      "Ġgarage": 2879,
      "Ġfright": 2880,
      "Ġmanaged": 2881,
      "lla": 2882,
      "imed": 2883,
      "Ġhurts": 2884,
      "Ġpencil": 2885,
      "Ġword": 2886,
      "Sue": 2887,
      "ject": 2888,
      "Ġcrawled": 2889,
      "Ġcost": 2890,
      "Ġlearning": 2891,
      "Ġarg": 2892,
      "Spot": 2893,
      "Ġcircle": 2894,
      "ĠMark": 2895,
      "Ġsaying": 2896,
      "Ġkindness": 2897,
      "ured": 2898,
      "Ġberries": 2899,
      "Ġonce": 2900,
      "olog": 2901,
      "Ġmighty": 2902,
      "Ġballoons": 2903,
      "Ġtough": 2904,
      "Ġpointing": 2905,
      "Ġchase": 2906,
      "Ġbald": 2907,
      "Ġfavour": 2908,
      "ready": 2909,
      "Ġwand": 2910,
      "Ġter": 2911,
      "lies": 2912,
      "keeper": 2913,
      "Ġshake": 2914,
      "und": 2915,
      "iv": 2916,
      "ĠBobby": 2917,
      "Ġjewel": 2918,
      "Ġlouder": 2919,
      "ĠBrown": 2920,
      "ipper": 2921,
      "Ġadded": 2922,
      "ages": 2923,
      "Ġbatter": 2924,
      "Ġsil": 2925,
      "Ġhunt": 2926,
      "Ġunus": 2927,
      "Ġguit": 2928,
      "Ġharder": 2929,
      "Ġguess": 2930,
      "Ġapolog": 2931,
      "Ġedge": 2932,
      "head": 2933,
      "Ġalready": 2934,
      "Ġfour": 2935,
      "Ġang": 2936,
      "Ġspun": 2937,
      "Ġfavourite": 2938,
      "Ġfool": 2939,
      "Ġnorm": 2940,
      "Ġwhale": 2941,
      "How": 2942,
      "Ġunusual": 2943,
      "Ġlibr": 2944,
      "Ġvalu": 2945,
      "ipp": 2946,
      "rage": 2947,
      "alk": 2948,
      "Ġenjoying": 2949,
      "ĠKitty": 2950,
      "Ġdizzy": 2951,
      "aw": 2952,
      "Ġhats": 2953,
      "Ġpump": 2954,
      "Ġbelonged": 2955,
      "Ġgrace": 2956,
      "Ġwrapped": 2957,
      "Ġcheerful": 2958,
      "Ġsmoke": 2959,
      "uggled": 2960,
      "Ġimpressed": 2961,
      "Ġstrawber": 2962,
      "Ġtrucks": 2963,
      "Ġrecord": 2964,
      "Ġgiving": 2965,
      "Ġsword": 2966,
      "Ġmarket": 2967,
      "Ġgrown": 2968,
      "Ġref": 2969,
      "Ġlaughs": 2970,
      "Ġtrunk": 2971,
      "Ġnormal": 2972,
      "anged": 2973,
      "Ġgrand": 2974,
      "Ġhero": 2975,
      "Ġears": 2976,
      "Ġguitar": 2977,
      "Ġloudly": 2978,
      "ola": 2979,
      "illiant": 2980,
      "Ġharm": 2981,
      "Ġturtle": 2982,
      "Here": 2983,
      "Ġbanana": 2984,
      "Ġproudly": 2985,
      "Ġboxes": 2986,
      "Ġscare": 2987,
      "ature": 2988,
      "ilt": 2989,
      "Ġbrilliant": 2990,
      "ery": 2991,
      "Ġchoose": 2992,
      "Ġbrothers": 2993,
      "Ġcircles": 2994,
      "Ġterri": 2995,
      "Ġbossy": 2996,
      "Ġdreamed": 2997,
      "Ġagainst": 2998,
      "Ġescape": 2999,
      "ym": 3000,
      "Ġgoat": 3001,
      "Ġinvited": 3002,
      "Ġskin": 3003,
      "Ġcab": 3004,
      "Ġhelps": 3005,
      "gy": 3006,
      "cient": 3007,
      "Ġcompet": 3008,
      "Ġpil": 3009,
      "ipe": 3010,
      "Ġpainting": 3011,
      "Ġmeans": 3012,
      "Ġmelt": 3013,
      "Ġfrightened": 3014,
      "Ġaccept": 3015,
      "fast": 3016,
      "Ġpee": 3017,
      "Ġflash": 3018,
      "Ġsafely": 3019,
      "Ġdepend": 3020,
      "Ġbuttons": 3021,
      "Ġslipped": 3022,
      "Ġdesign": 3023,
      "Ġstubb": 3024,
      "Ġbirdie": 3025,
      "Ġjack": 3026,
      "ĠDan": 3027,
      "Ġwrap": 3028,
      "Ġvaluable": 3029,
      "Ġcabin": 3030,
      "Ġcrayon": 3031,
      "ĠEllie": 3032,
      "Ġwake": 3033,
      "Ġstream": 3034,
      "ĠFred": 3035,
      "Ġwalls": 3036,
      "Ġhappiness": 3037,
      "ouses": 3038,
      "Ġbreakfast": 3039,
      "Ġlog": 3040,
      "erry": 3041,
      "Ġancient": 3042,
      "edient": 3043,
      "Ġstudy": 3044,
      "Ġsuccessful": 3045,
      "Ġclay": 3046,
      "emo": 3047,
      "orge": 3048,
      "Ġknows": 3049,
      "Ġfoolish": 3050,
      "Ġtoast": 3051,
      "Ġfalls": 3052,
      "ye": 3053,
      "Ġfridge": 3054,
      "Ġlean": 3055,
      "Ġstubborn": 3056,
      "Ġunl": 3057,
      "Ġnicely": 3058,
      "atch": 3059,
      "Ġshape": 3060,
      "apping": 3061,
      "omed": 3062,
      "Ġfier": 3063,
      "Ġcudd": 3064,
      "ĠPete": 3065,
      "Ġrough": 3066,
      "Ġdreams": 3067,
      "Ġmovie": 3068,
      "Ġspace": 3069,
      "Ġhouses": 3070,
      "Ġcity": 3071,
      "Ġnosy": 3072,
      "Ġbloom": 3073,
      "Ġdelicate": 3074,
      "Ġobedient": 3075,
      "Ġfierce": 3076,
      "ĠMy": 3077,
      "Ġoffice": 3078,
      "Ġtomato": 3079,
      "Ġfat": 3080,
      "Ġgrandpa": 3081,
      "ado": 3082,
      "laimed": 3083,
      "az": 3084,
      "Ġicy": 3085,
      "Ġcompetit": 3086,
      "Ġsuggested": 3087,
      "ĠToday": 3088,
      "Ġshark": 3089,
      "Ġdead": 3090,
      "Ġnotice": 3091,
      "Ġwagon": 3092,
      "pes": 3093,
      "Ġexclaimed": 3094,
      "Ġmem": 3095,
      "Ġkinds": 3096,
      "Ġmixed": 3097,
      "Ġwiped": 3098,
      "Ġcher": 3099,
      "Ġuseful": 3100,
      "ext": 3101,
      "Ġpoured": 3102,
      "Ġshells": 3103,
      "uth": 3104,
      "ÅĵLet": 3105,
      "Ġstri": 3106,
      "ĠBobo": 3107,
      "Ġlights": 3108,
      "Ġtools": 3109,
      "Ġlocked": 3110,
      "Ġsounded": 3111,
      "Ġthu": 3112,
      "Ġstove": 3113,
      "Ġexcitedly": 3114,
      "Ġexplored": 3115,
      "Ġaunt": 3116,
      "wards": 3117,
      "Ġegg": 3118,
      "ĠRose": 3119,
      "Ġfrag": 3120,
      "eorge": 3121,
      "Ġrose": 3122,
      "!\".": 3123,
      "Ġson": 3124,
      "oppy": 3125,
      "Ġshadow": 3126,
      "Ġtimes": 3127,
      "arry": 3128,
      "Ġcro": 3129,
      "Ġenc": 3130,
      "ĠTweety": 3131,
      "Ġbags": 3132,
      "Ġfountain": 3133,
      "ention": 3134,
      "Ġthemselves": 3135,
      "oot": 3136,
      "Ġstumbled": 3137,
      "Ġbushes": 3138,
      "Ġweal": 3139,
      "ache": 3140,
      "dom": 3141,
      "Ġlow": 3142,
      "Ġshowing": 3143,
      "Ġspoiled": 3144,
      "Ġfingers": 3145,
      "Ġperform": 3146,
      "Ġlab": 3147,
      "Ġabove": 3148,
      "vice": 3149,
      "Ġthoughtful": 3150,
      "Ġresc": 3151,
      "Ġindepend": 3152,
      "kn": 3153,
      "Ġsmaller": 3154,
      "Ġwitch": 3155,
      "Ġdough": 3156,
      "Em": 3157,
      "Ġfragile": 3158,
      "na": 3159,
      "Ġdependable": 3160,
      "ray": 3161,
      "Ġraced": 3162,
      "Ġjog": 3163,
      "arth": 3164,
      "Ġplayful": 3165,
      "inal": 3166,
      "Ġseem": 3167,
      "Ġhelm": 3168,
      "Ġspinning": 3169,
      "Ġeng": 3170,
      "Ġtele": 3171,
      "corn": 3172,
      "Ġclock": 3173,
      "Ġbrightly": 3174,
      "ines": 3175,
      "Ġprint": 3176,
      "Ġrode": 3177,
      "Ġstretch": 3178,
      "Ġparrot": 3179,
      "ormous": 3180,
      "Ġdelighted": 3181,
      "Ġbuilt": 3182,
      "Ġadmired": 3183,
      "Ġenormous": 3184,
      "Ġlaw": 3185,
      "Ġkicked": 3186,
      "ĠU": 3187,
      "Ġroof": 3188,
      "Ġcounted": 3189,
      "Ġjam": 3190,
      "Ġswe": 3191,
      "Ġrat": 3192,
      "Ġpractice": 3193,
      "reen": 3194,
      "Ġorig": 3195,
      "Ġways": 3196,
      "Ġchanged": 3197,
      "Ġshone": 3198,
      "Ġsunfl": 3199,
      "Ġcop": 3200,
      "ĠElla": 3201,
      "Ġreminded": 3202,
      "Ġtwig": 3203,
      "Ġacorn": 3204,
      "ither": 3205,
      "Ġcam": 3206,
      "ience": 3207,
      "Ġsniff": 3208,
      "Ġzip": 3209,
      "eeze": 3210,
      "Ġhammer": 3211,
      "Ġindependent": 3212,
      "ĠYour": 3213,
      "Ġusing": 3214,
      "Ġbitter": 3215,
      "Ġhanded": 3216,
      "Ġwhispered": 3217,
      "Ġhoop": 3218,
      "mbre": 3219,
      "known": 3220,
      "Ġchose": 3221,
      "Ġchir": 3222,
      "anut": 3223,
      "Ġloll": 3224,
      "Ġjolly": 3225,
      "Ġumbre": 3226,
      "ĠMrs": 3227,
      "Ġcone": 3228,
      "Ġtunn": 3229,
      "Ġsolve": 3230,
      "Ġstronger": 3231,
      "Ġbees": 3232,
      "Ġserious": 3233,
      "ipop": 3234,
      "ĠMar": 3235,
      "Ġoriginal": 3236,
      "Ġtummy": 3237,
      "Ġsteal": 3238,
      "Ġbeak": 3239,
      "Ġbrace": 3240,
      "Ġterrible": 3241,
      "ÅĵYes": 3242,
      "Ġmis": 3243,
      "Ġpopcorn": 3244,
      "Ġfre": 3245,
      "Ġlollipop": 3246,
      "Ġpainted": 3247,
      "Ġboats": 3248,
      "Ġallowed": 3249,
      "Ġhairy": 3250,
      "ict": 3251,
      "Ġmoder": 3252,
      "iable": 3253,
      "Ġsauce": 3254,
      "Ġcleaning": 3255,
      "Ġunknown": 3256,
      "Ġleaving": 3257,
      "Ġdust": 3258,
      "ĠBella": 3259,
      "Ġgasped": 3260,
      "Ġfinding": 3261,
      "Ġjoined": 3262,
      "Ġguard": 3263,
      "Ġsalad": 3264,
      "Ġpotato": 3265,
      "het": 3266,
      "Ġbean": 3267,
      "Ġpumpkin": 3268,
      "See": 3269,
      "upid": 3270,
      "iew": 3271,
      "ĠBu": 3272,
      "Ġpicking": 3273,
      "Ġclum": 3274,
      "inary": 3275,
      "Ġdove": 3276,
      "anger": 3277,
      "Ġbump": 3278,
      "ĠNemo": 3279,
      "Ġhalf": 3280,
      "Ġsink": 3281,
      "amond": 3282,
      "Ġcostum": 3283,
      "uring": 3284,
      "Ġyet": 3285,
      "robe": 3286,
      "Ġmetal": 3287,
      "Ġtank": 3288,
      "Ġbounce": 3289,
      "Ġreliable": 3290,
      "Ġpost": 3291,
      "Ġtor": 3292,
      "Ġview": 3293,
      "Ġdoesn": 3294,
      "Ġthose": 3295,
      "Ġforth": 3296,
      "aghet": 3297,
      "aghetti": 3298,
      "Ġdiamond": 3299,
      "Ġdolphin": 3300,
      "Ġadvice": 3301,
      "com": 3302,
      "ĠSn": 3303,
      "Ġhay": 3304,
      "Ġbarber": 3305,
      "Ġmodern": 3306,
      "Ġstamp": 3307,
      "Ġrubb": 3308,
      "Ġthinking": 3309,
      "Ġgem": 3310,
      "Ġing": 3311,
      "Ġholds": 3312,
      "gu": 3313,
      "ebra": 3314,
      "ĠAlice": 3315,
      "Ġpirate": 3316,
      "ugged": 3317,
      "Ġmarble": 3318,
      "Ġcreate": 3319,
      "Ġregular": 3320,
      "redient": 3321,
      "Ġingredient": 3322,
      "ĠGrandpa": 3323,
      "Ġclumsy": 3324,
      "Ġsleeping": 3325,
      "Ġsearching": 3326,
      "Ġstairs": 3327,
      "Ġwealthy": 3328,
      "Ġyarn": 3329,
      "Ġrushed": 3330,
      "Ġstupid": 3331,
      "Ġprep": 3332,
      "ilty": 3333,
      "Ġtelling": 3334,
      "ĠWhenever": 3335,
      "Ġspaghetti": 3336,
      "Ġguilty": 3337,
      "Ġcheap": 3338,
      "Ġpeanut": 3339,
      "Ġgoose": 3340,
      "Ġchar": 3341,
      "ÅĵWhat": 3342,
      "ophie": 3343,
      "Ġrub": 3344,
      "Ġmagn": 3345,
      "ations": 3346,
      "Ġflex": 3347,
      "ĠFr": 3348,
      "Ġcompass": 3349,
      "Ġopens": 3350,
      "Ġmask": 3351,
      "Ġpatch": 3352,
      "Ġstat": 3353,
      "Ġarrow": 3354,
      "Ġzebra": 3355,
      "Ġengine": 3356,
      "io": 3357,
      "Ġthunder": 3358,
      "Ġknock": 3359,
      "Ġsquare": 3360,
      "illa": 3361,
      "eezed": 3362,
      "irsty": 3363,
      "Ġangel": 3364,
      "Ġcur": 3365,
      "Ġgraceful": 3366,
      "Ġcamera": 3367,
      "Ġumbrella": 3368,
      "cod": 3369,
      "Ġdriving": 3370,
      "ĠMike": 3371,
      "Ġbull": 3372,
      "Ġcrazy": 3373,
      "âĤ¬âĢ": 3374,
      "Ġshiver": 3375,
      "Go": 3376,
      "Ġwashed": 3377,
      "Ġcarrying": 3378,
      "Ġstage": 3379,
      "isk": 3380,
      "Ġpopular": 3381,
      "Ġbeet": 3382,
      "Ġdull": 3383,
      "umbers": 3384,
      "ÅĵIt": 3385,
      "Ġmissing": 3386,
      "ĠDucky": 3387,
      "Mary": 3388,
      "Ġsparkled": 3389,
      "Ġfriendship": 3390,
      "Ġtruth": 3391,
      "Ġmeal": 3392,
      "Ġseeds": 3393,
      "fa": 3394,
      "Ġflexible": 3395,
      "Ġimpressive": 3396,
      "Ġsne": 3397,
      "Ġtied": 3398,
      "Ġpebble": 3399,
      "time": 3400,
      "Ġcareless": 3401,
      "Ġlibrary": 3402,
      "Ġimagined": 3403,
      "Ġcomb": 3404,
      "uper": 3405,
      "Ġdeliver": 3406,
      "Ġnature": 3407,
      "Ġshel": 3408,
      "Ġending": 3409,
      "Ġpatter": 3410,
      "Ġdestro": 3411,
      "Ġjacket": 3412,
      "Ġpersist": 3413,
      "Ġreward": 3414,
      "Ġhandle": 3415,
      "ision": 3416,
      "Ġfresh": 3417,
      "Ġrubbed": 3418,
      "Ġingredients": 3419,
      "Ġdreaming": 3420,
      "Ġshocked": 3421,
      "ric": 3422,
      "Ġprize": 3423,
      "oomy": 3424,
      "ĠDave": 3425,
      "Ġsudden": 3426,
      "Ġcrocod": 3427,
      "Ġload": 3428,
      "Ġenth": 3429,
      "ief": 3430,
      "ibb": 3431,
      "Ġpige": 3432,
      "Ġpattern": 3433,
      "Ġcompassion": 3434,
      "Ġenvel": 3435,
      "Ġflashlight": 3436,
      "Ġthirsty": 3437,
      "Ġsadly": 3438,
      "Ġencou": 3439,
      "Ġstranger": 3440,
      "Ġenthus": 3441,
      "ince": 3442,
      "ĠFin": 3443,
      "Ġwheels": 3444,
      "Ġdesk": 3445,
      "ÅĵLetÃ¢": 3446,
      "ement": 3447,
      "arsh": 3448,
      "Ġreading": 3449,
      "Ġwire": 3450,
      "Ġdiscover": 3451,
      "Ġearly": 3452,
      "Ġmailbox": 3453,
      "Ġfork": 3454,
      "Ġsuit": 3455,
      "Ġnumbers": 3456,
      "Ġtem": 3457,
      "Ġpeeked": 3458,
      "Ġpenny": 3459,
      "Ġbutterflies": 3460,
      "awn": 3461,
      "Ġcryst": 3462,
      "Ġspilled": 3463,
      "Ġbracelet": 3464,
      "Ġtorn": 3465,
      "Ġrug": 3466,
      "Ġgum": 3467,
      "Ġstops": 3468,
      "loo": 3469,
      "Ġrece": 3470,
      "Ġenv": 3471,
      "Ġcomput": 3472,
      "Ġahead": 3473,
      "Ġspring": 3474,
      "bled": 3475,
      "Ġorder": 3476,
      "Ġtowers": 3477,
      "comfort": 3478,
      "Ġsorts": 3479,
      "Ġobject": 3480,
      "ellig": 3481,
      "Ġwing": 3482,
      "Ġbent": 3483,
      "Ġcere": 3484,
      "Ġanx": 3485,
      "Ġsurf": 3486,
      "ĠBear": 3487,
      "Ġpengu": 3488,
      "Ġearth": 3489,
      "Ġintellig": 3490,
      "Ġwarned": 3491,
      "Ġwindows": 3492,
      "ĠMummy": 3493,
      "Ġspoke": 3494,
      "Ġpow": 3495,
      "ĠWhile": 3496,
      "Ġpup": 3497,
      "gest": 3498,
      "Ġhumble": 3499,
      "Ġuncomfort": 3500,
      "Ġavo": 3501,
      "Ġpant": 3502,
      "Ġnote": 3503,
      "Ġuncomfortable": 3504,
      "ĠMandy": 3505,
      "Ġplaced": 3506,
      "Yay": 3507,
      "iches": 3508,
      "Ġsunflower": 3509,
      "Ow": 3510,
      "Ġpale": 3511,
      "Ġtravel": 3512,
      "Ġbadly": 3513,
      "Ġolder": 3514,
      "Ġslides": 3515,
      "Ġanxious": 3516,
      "ikes": 3517,
      "Ġbiggest": 3518,
      "Ġscale": 3519,
      "Ġcompl": 3520,
      "ĠcouldnÃ¢": 3521,
      "Ġstack": 3522,
      "Ġflute": 3523,
      "Ġtrap": 3524,
      "Ġstatue": 3525,
      "Ġscoot": 3526,
      "Ġcounting": 3527,
      "Ġgrowing": 3528,
      "Ġcooking": 3529,
      "ĠPe": 3530,
      "Ġcomplet": 3531,
      "Ġliz": 3532,
      "Ġtunnel": 3533,
      "Ġbeetle": 3534,
      "Ġcelebrate": 3535,
      "host": 3536,
      "Ġmel": 3537,
      "Ġcupboard": 3538,
      "Ġmush": 3539,
      "Ġsofa": 3540,
      "ĠKim": 3541,
      "Ġnail": 3542,
      "Ġharmless": 3543,
      "Ġscatter": 3544,
      "ĠBill": 3545,
      "Ġbeauty": 3546,
      "Ġmole": 3547,
      "Ġdeaf": 3548,
      "Ġvalue": 3549,
      "Ġnurse": 3550,
      "Ġsuper": 3551,
      "Ġperm": 3552,
      "Ġer": 3553,
      "ĠHere": 3554,
      "Ġshut": 3555,
      "Ġpersistent": 3556,
      "Ġjumps": 3557,
      "While": 3558,
      "Ġcrocodile": 3559,
      "Ġhung": 3560,
      "Ġghost": 3561,
      "Ġgifted": 3562,
      "Ġrefused": 3563,
      "Ġcharming": 3564,
      "Ġtrick": 3565,
      "ĠGive": 3566,
      "Ġneat": 3567,
      "Ġnames": 3568,
      "Ġcourage": 3569,
      "opus": 3570,
      "Ġyawn": 3571,
      "Ġflour": 3572,
      "ctopus": 3573,
      "Ġcrane": 3574,
      "Ġcurt": 3575,
      "Ġpretending": 3576,
      "cream": 3577,
      "Ġpony": 3578,
      "Ġcereal": 3579,
      "Ġbase": 3580,
      "Ġsandwiches": 3581,
      "ices": 3582,
      "ĠLola": 3583,
      "Ġraven": 3584,
      "Ġsnuggled": 3585,
      "ĠToby": 3586,
      "Ġcurtain": 3587,
      "Ġsupport": 3588,
      "Ġdestroy": 3589,
      "Ġtur": 3590,
      "Ġordinary": 3591,
      "Ġchasing": 3592,
      "ud": 3593,
      "Ġuniver": 3594,
      "aid": 3595,
      "ĠLook": 3596,
      "Ġquestion": 3597,
      "Ġenvelope": 3598,
      "aches": 3599,
      "Ġdrawer": 3600,
      "Ġtriang": 3601,
      "Ġvi": 3602,
      "Ġcamp": 3603,
      "Ġsett": 3604,
      "Daisy": 3605,
      "used": 3606,
      "Ġcomputer": 3607,
      "Ġoctopus": 3608,
      "Ġattract": 3609,
      "Ġrules": 3610,
      "Ġcrawl": 3611,
      "Ġlively": 3612,
      "Ġsend": 3613,
      "Ġgloomy": 3614,
      "Alice": 3615,
      "Ġcartoon": 3616,
      "aby": 3617,
      "Ġuncle": 3618,
      "Ġintelligent": 3619,
      "ips": 3620,
      "Ġmay": 3621,
      "Ġpiano": 3622,
      "Ġspeed": 3623,
      "Ġpackage": 3624,
      "Ġblueber": 3625,
      "Ġshaking": 3626,
      "cu": 3627,
      "Ġhelmet": 3628,
      "Ġcrystal": 3629,
      "Ġneedle": 3630,
      "Ġmushroom": 3631,
      "Ġturkey": 3632,
      "oe": 3633,
      "ĠEventually": 3634,
      "Ġcollar": 3635,
      "Ġparade": 3636,
      "Ġcreatures": 3637,
      "stri": 3638,
      "uddy": 3639,
      "heart": 3640,
      "ÅĵThat": 3641,
      "Re": 3642,
      "Ġhurry": 3643,
      "Ġtwirled": 3644,
      "Ġphot": 3645,
      "Ġlizard": 3646,
      "illie": 3647,
      "erable": 3648,
      "enry": 3649,
      "ubby": 3650,
      "aff": 3651,
      "orant": 3652,
      "Ġalert": 3653,
      "Ġmiserable": 3654,
      "Ġthief": 3655,
      "gust": 3656,
      "Ġstation": 3657,
      "Ġsoldier": 3658,
      "Ġhunter": 3659,
      "Ġpepper": 3660,
      "ceed": 3661,
      "Ġtask": 3662,
      "arlie": 3663,
      "Ġanywhere": 3664,
      "Ġdug": 3665,
      "Ġdisgust": 3666,
      "Ġbicy": 3667,
      "Ġfireman": 3668,
      "Ġener": 3669,
      "cut": 3670,
      "Ġcarp": 3671,
      "iest": 3672,
      "Ġwishes": 3673,
      "Ġseal": 3674,
      "Ġresist": 3675,
      "Ġled": 3676,
      "Ġvide": 3677,
      "Ġbeep": 3678,
      "Ġignorant": 3679,
      "Ġbandage": 3680,
      "Ġstickers": 3681,
      "coa": 3682,
      "Ġscreen": 3683,
      "Ġradio": 3684,
      "Ġhelpless": 3685,
      "Ġbounced": 3686,
      "tter": 3687,
      "Ġtrash": 3688,
      "Give": 3689,
      "Ġsecond": 3690,
      "Ġleash": 3691,
      "Ġrepe": 3692,
      "Ġpracticed": 3693,
      "Ġmuff": 3694,
      "Ġshine": 3695,
      "Ġchance": 3696,
      "Ġletters": 3697,
      "Ġattractive": 3698,
      "Ġimpat": 3699,
      "Ġmill": 3700,
      "Ġstirred": 3701,
      "Ġcricket": 3702,
      "Ġjeep": 3703,
      "Ġstretched": 3704,
      "Ġnobody": 3705,
      "urb": 3706,
      "Ġthread": 3707,
      "Ġpasta": 3708,
      "Ġcube": 3709,
      "Ġpand": 3710,
      "Ġchubby": 3711,
      "Ġtooth": 3712,
      "ummer": 3713,
      "Ġfu": 3714,
      "Ġpigeon": 3715,
      "ses": 3716,
      "If": 3717,
      "Ġjet": 3718,
      "Ġgir": 3719,
      "Ġcompassionate": 3720,
      "ccol": 3721,
      "ĠGeorge": 3722,
      "Benny": 3723,
      "Ġclub": 3724,
      "ĠCl": 3725,
      "ccoli": 3726,
      "arian": 3727,
      "ĠPolly": 3728,
      "Ġtrump": 3729,
      "Ġdisturb": 3730,
      "orable": 3731,
      "Ġdecorate": 3732,
      "Ġcocoa": 3733,
      "Ġbrighter": 3734,
      "Ġjug": 3735,
      "Ġsteps": 3736,
      "Ġimpatient": 3737,
      "Ġtire": 3738,
      "Ġcompetitive": 3739,
      "Ġfurther": 3740,
      "Ġotter": 3741,
      "Ġrespectful": 3742,
      "Ġsucceed": 3743,
      "Ġtroubled": 3744,
      "Ġpressed": 3745,
      "olin": 3746,
      "Ġitself": 3747,
      "aked": 3748,
      "Ġbet": 3749,
      "Ġostri": 3750,
      "noon": 3751,
      "Ġcandle": 3752,
      "Ġmug": 3753,
      "ĠWh": 3754,
      "Ġafternoon": 3755,
      "Ġattic": 3756,
      "ĠAl": 3757,
      "Ġrestless": 3758,
      "Ġstarts": 3759,
      "Ġpun": 3760,
      "Ġtap": 3761,
      "Ġsomewhere": 3762,
      "Ġribb": 3763,
      "ĠAre": 3764,
      "aurant": 3765,
      "stic": 3766,
      "Ġdess": 3767,
      "Ġquar": 3768,
      "Ġcarpet": 3769,
      "Ġanyway": 3770,
      "Ġshouts": 3771,
      "Ġshoe": 3772,
      "Ġdisgusting": 3773,
      "Ġadorable": 3774,
      "Ġrestaurant": 3775,
      "Ġskip": 3776,
      "Ġleop": 3777,
      "Ġfort": 3778,
      "gn": 3779,
      "Ġpants": 3780,
      "Ġvine": 3781,
      "Ġtray": 3782,
      "Ġnuts": 3783,
      "Ġwaff": 3784,
      "Ġcase": 3785,
      "come": 3786,
      "Ġgor": 3787,
      "Ġfearful": 3788,
      "Ġscrew": 3789,
      "Ġenvious": 3790,
      "Ġsweetheart": 3791,
      "opter": 3792,
      "Ġcards": 3793,
      "Ġallig": 3794,
      "icopter": 3795,
      "Little": 3796,
      "iastic": 3797,
      "Ġdistant": 3798,
      "Ġbroccoli": 3799,
      "Ġenthusiastic": 3800,
      "Ġhipp": 3801,
      "Ġfilthy": 3802,
      "ĠSh": 3803,
      "Ġgiggle": 3804,
      "Ġexper": 3805,
      "Ġtrumpet": 3806,
      "Ġcooked": 3807,
      "Ġhelicopter": 3808,
      "Ġmonkeys": 3809,
      "night": 3810,
      "Grandma": 3811,
      "Ġreco": 3812,
      "Ġpor": 3813,
      "ĠWhere": 3814,
      "irit": 3815,
      "Ġsandbox": 3816,
      "aroo": 3817,
      "angaroo": 3818,
      "Ġhook": 3819,
      "ĠWould": 3820,
      "gging": 3821,
      "Ġbri": 3822,
      "ĠLee": 3823,
      "Ġadmire": 3824,
      "Ġnowhere": 3825,
      "Ġten": 3826,
      "Ġharsh": 3827,
      "Ġbackpack": 3828,
      "Ġsoar": 3829,
      "ĠBrownie": 3830,
      "Ġsent": 3831,
      "Ġbelt": 3832,
      "Ġbatht": 3833,
      "gie": 3834,
      "Ġexplain": 3835,
      "Ġscooter": 3836,
      "Ġants": 3837,
      "llie": 3838,
      "Ġmeas": 3839,
      "opl": 3840,
      "Ġpoem": 3841,
      "eropl": 3842,
      "Ġcountry": 3843,
      "cycle": 3844,
      "Ġbathtub": 3845,
      "Ġpipe": 3846,
      "Ġaeropl": 3847,
      "Ġbarking": 3848,
      "Ġquite": 3849,
      "Ġunpack": 3850,
      "stairs": 3851,
      "Ġcows": 3852,
      "par": 3853,
      "Ġspeak": 3854,
      "Ġkangaroo": 3855,
      "Ġlid": 3856,
      "Ġsquash": 3857,
      "Ġleopard": 3858,
      "Ġmama": 3859,
      "Ġhappier": 3860,
      "Ġspell": 3861,
      "Ġtemp": 3862,
      "Ġrepair": 3863,
      "Ġlistening": 3864,
      "Ġbicycle": 3865,
      "Ġsepar": 3866,
      "imi": 3867,
      "ĠEverything": 3868,
      "Ġsummer": 3869,
      "Ġstared": 3870,
      "Ġcush": 3871,
      "Ġgrabs": 3872,
      "Ġmessage": 3873,
      "Ġbreat": 3874,
      "ĠdidnÃ¢": 3875,
      "uct": 3876,
      "Ġostrich": 3877,
      "Ġfirework": 3878,
      "ĠAlex": 3879,
      "Ġhuman": 3880,
      "Ġloop": 3881,
      "Ġgiven": 3882,
      "Ġcomet": 3883,
      "Ġmule": 3884,
      "hood": 3885,
      "apa": 3886,
      "Ġsort": 3887,
      "Ġimpro": 3888,
      "Jenny": 3889,
      "Ġgorilla": 3890,
      "ĠJoey": 3891,
      "Ġmodest": 3892,
      "Ġpaid": 3893,
      "Ġfinds": 3894,
      "year": 3895,
      "Ġyogurt": 3896,
      "Ġdessert": 3897,
      "Ġmeat": 3898,
      "Ġobser": 3899,
      "Ġviolin": 3900,
      "Ġur": 3901,
      "ĠSophie": 3902,
      "Bye": 3903,
      "Ġhedge": 3904,
      "ipping": 3905,
      "Ġspirit": 3906,
      "ĠSm": 3907,
      "Ġpulls": 3908,
      "Ġtripped": 3909,
      "shed": 3910,
      "Ġjellyfish": 3911,
      "Ġmelon": 3912,
      "Ġsplit": 3913,
      "Ġpaws": 3914,
      "Ġalligator": 3915,
      "Everyone": 3916,
      "Ġrescue": 3917,
      "Ġsize": 3918,
      "Ġholes": 3919,
      "Ġprov": 3920,
      "ucked": 3921,
      "Ġroared": 3922,
      "Ġfive": 3923,
      "Ġforgave": 3924,
      "ĠPat": 3925,
      "Ġcats": 3926,
      "Ġwheat": 3927,
      "Ġpurse": 3928,
      "Ġrecogn": 3929,
      "Ġhippo": 3930,
      "Ġpilot": 3931,
      "Ġhall": 3932,
      "Daddy": 3933,
      "Ġtax": 3934,
      "Ġsheet": 3935,
      "Ġpal": 3936,
      "Ġcact": 3937,
      "Ġinse": 3938,
      "Ġpushing": 3939,
      "ophone": 3940,
      "Ġbikes": 3941,
      "Ġorganize": 3942,
      "ci": 3943,
      "Ġswinging": 3944,
      "Ġsle": 3945,
      "Ġraft": 3946,
      "Ġsalt": 3947,
      "Ġscold": 3948,
      "Ġstarting": 3949,
      "Ġshade": 3950,
      "Ġbehave": 3951,
      "Ġbin": 3952,
      "Ġlightning": 3953,
      "Ġfle": 3954,
      "Ġoat": 3955,
      "Ġrice": 3956,
      "ĠSnow": 3957,
      "Ġhaircut": 3958,
      "Ġtriangle": 3959,
      "eer": 3960,
      "Ġbuzz": 3961,
      "Ġenergy": 3962,
      "iskers": 3963,
      "ĠTweetie": 3964,
      "ÅĵYou": 3965,
      "Ġbur": 3966,
      "Ġknot": 3967,
      "Ġfrowned": 3968,
      "bul": 3969,
      "Ġlear": 3970,
      "aled": 3971,
      "Ġlearnt": 3972,
      "Ġeither": 3973,
      "Ġporch": 3974,
      "Ġmath": 3975,
      "Ġriding": 3976,
      "Ġped": 3977,
      "Ġlip": 3978,
      "lcano": 3979,
      "seum": 3980,
      "Ġtrains": 3981,
      "ebook": 3982,
      "Ġended": 3983,
      "Ġnotebook": 3984,
      "Ġsticker": 3985,
      "iling": 3986,
      "inking": 3987,
      "Ġlend": 3988,
      "Ġwallet": 3989,
      "Ġluck": 3990,
      "Ġevening": 3991,
      "reci": 3992,
      "Ġpanda": 3993,
      "Ġcactus": 3994,
      "Ġjokes": 3995,
      "Ġchalk": 3996,
      "Ġbananas": 3997,
      "Ġpapers": 3998,
      "Ġrod": 3999,
      "Ġmuseum": 4000,
      "Ġsweater": 4001,
      "Ġappreci": 4002,
      "Ġlions": 4003,
      "Ġpalace": 4004,
      "Ġtaxi": 4005,
      "Ġvolcano": 4006,
      "ube": 4007,
      "Ġshopkeeper": 4008,
      "Ġchain": 4009,
      "Ġstrawberry": 4010,
      "Ġbears": 4011,
      "Ġrolling": 4012,
      "Ġboots": 4013,
      "Ġeras": 4014,
      "Ġhadn": 4015,
      "astic": 4016,
      "Ġneighbour": 4017,
      "Ġbarrel": 4018,
      "Ġshakes": 4019,
      "ffe": 4020,
      "Ġmicr": 4021,
      "icer": 4022,
      "ffee": 4023,
      "ooped": 4024,
      "Ġsilver": 4025,
      "urch": 4026,
      "Ġlaund": 4027,
      "Ġalive": 4028,
      "Ġsmells": 4029,
      "Ġmild": 4030,
      "play": 4031,
      "Ġreind": 4032,
      "Ġsock": 4033,
      "ĠRed": 4034,
      "ĠJerry": 4035,
      "Ġlaundry": 4036,
      "Ġsteak": 4037,
      "ĠAndy": 4038,
      "Ġavoc": 4039,
      "Ġink": 4040,
      "Ġpole": 4041,
      "Ġstrugg": 4042,
      "iron": 4043,
      "Ġpushes": 4044,
      "ĠTr": 4045,
      "Ġputting": 4046,
      "Ġvisited": 4047,
      "Ġgoal": 4048,
      "Ġsoftly": 4049,
      "Ġmagnet": 4050,
      "Ġjudge": 4051,
      "edy": 4052,
      "Ġtricks": 4053,
      "Ġdrawings": 4054,
      "Ġmicrophone": 4055,
      "Ġclapping": 4056,
      "Ġpad": 4057,
      "Ġol": 4058,
      "Ġhive": 4059,
      "Ġshield": 4060,
      "Ġtube": 4061,
      "Ġleaned": 4062,
      "Ġcolours": 4063,
      "Ġsailor": 4064,
      "Ġshovel": 4065,
      "Ġairport": 4066,
      "Ha": 4067,
      "Ġzoomed": 4068,
      "Ġfalling": 4069,
      "Ġrag": 4070,
      "Ġbelongs": 4071,
      "Ġshelter": 4072,
      "aggie": 4073,
      "Ġunlock": 4074,
      "Ġsprink": 4075,
      "Ġchecked": 4076,
      "elery": 4077,
      "happy": 4078,
      "Ġinsist": 4079,
      "Ġpenguin": 4080,
      "Ġquarrel": 4081,
      "Ġambul": 4082,
      "Ġclimbing": 4083,
      "Ġmarched": 4084,
      "ĠPaul": 4085,
      "Ġgro": 4086,
      "Ġdisplay": 4087,
      "Ġreindeer": 4088,
      "cast": 4089,
      "hino": 4090,
      "Ġsaus": 4091,
      "ĠBet": 4092,
      "ense": 4093,
      "Ġaeroplane": 4094,
      "Ġdive": 4095,
      "Ġdishes": 4096,
      "ophy": 4097,
      "Ġpolish": 4098,
      "Ġbarks": 4099,
      "ges": 4100,
      "Ġavail": 4101,
      "ĠdonÃ¢": 4102,
      "Ġfields": 4103,
      "Ġgrapes": 4104,
      "Ġsandcast": 4105,
      "Ġambulance": 4106,
      "Ġpeek": 4107,
      "ait": 4108,
      "Ġapologized": 4109,
      "Ġyach": 4110,
      "Ġsoil": 4111,
      "Ġcoffee": 4112,
      "Ġskill": 4113,
      "ĠPapa": 4114,
      "sely": 4115,
      "Ġcostume": 4116,
      "Ġelev": 4117,
      "Ġoy": 4118,
      "Ġtrophy": 4119,
      "Ġfeelings": 4120,
      "Ġplanet": 4121,
      "ĠOr": 4122,
      "Ġhoping": 4123,
      "anic": 4124,
      "Ġfilm": 4125,
      "Ġprun": 4126,
      "Ġart": 4127,
      "Ġrubber": 4128,
      "ron": 4129,
      "Ġunhappy": 4130,
      "Ġdrops": 4131,
      "Ġshrimp": 4132,
      "nger": 4133,
      "ĠBunny": 4134,
      "Ġmedal": 4135,
      "Ġkitty": 4136,
      "âĤ¬âĢľ": 4137,
      "Ġthanks": 4138,
      "Ġraining": 4139,
      "Ġmen": 4140,
      "chanic": 4141,
      "Ġstom": 4142,
      "Ġminute": 4143,
      "Ġelevator": 4144,
      "Ġcelery": 4145,
      "Ġcord": 4146,
      "Ġonion": 4147,
      "Ġrhino": 4148,
      "Ġavailable": 4149,
      "ected": 4150,
      "Ġeraser": 4151,
      "Ġincl": 4152,
      "Ġpage": 4153,
      "Ġshort": 4154,
      "Ġyacht": 4155,
      "reeze": 4156,
      "Ġshouldn": 4157,
      "Ġfisher": 4158,
      "Ġperfectly": 4159,
      "Ġimagine": 4160,
      "Ġwool": 4161,
      "Ġmarry": 4162,
      "Ġwinter": 4163,
      "Ġbasketball": 4164,
      "Ġmechanic": 4165,
      "ĠBuddy": 4166,
      "Ġdiary": 4167,
      "nam": 4168,
      "Ġbul": 4169,
      "Ġherb": 4170,
      "Ġflies": 4171,
      "Ġcomplete": 4172,
      "Ġrever": 4173,
      "Ġappl": 4174,
      "Ġclosely": 4175,
      "Ġcardboard": 4176,
      "Ġinsect": 4177,
      "Ġmagaz": 4178,
      "Ġeagerly": 4179,
      "Ġplayer": 4180,
      "ĠWhiskers": 4181,
      "eath": 4182,
      "Ġjournal": 4183,
      "ĠWill": 4184,
      "Ġbaking": 4185,
      "Ġvend": 4186,
      "Ġquit": 4187,
      "Ġfurn": 4188,
      "Ġglove": 4189,
      "iture": 4190,
      "ĠSmith": 4191,
      "Ġdisag": 4192,
      "Ġfurniture": 4193,
      "Ġstuffed": 4194,
      "Ġtub": 4195,
      "Ġbreaks": 4196,
      "Ġimagination": 4197,
      "Ġbulb": 4198,
      "Ġtreasures": 4199,
      "Ġchurch": 4200,
      "gen": 4201,
      "ecause": 4202,
      "Ġcounter": 4203,
      "any": 4204,
      "Ġwife": 4205,
      "Ġheaded": 4206,
      "Ġcooler": 4207,
      "azz": 4208,
      "Ġpair": 4209,
      "Ġfreez": 4210,
      "Ġfrogs": 4211,
      "Ġtut": 4212,
      "quit": 4213,
      "Ġskull": 4214,
      "mand": 4215,
      "ories": 4216,
      "Ġpit": 4217,
      "Ġknob": 4218,
      "ween": 4219,
      "Ġfactor": 4220,
      "stead": 4221,
      "right": 4222,
      "Ġswitch": 4223,
      "Ġfootball": 4224,
      "place": 4225,
      "Ġoffer": 4226,
      "ides": 4227,
      "Ġsunset": 4228,
      "Ġbetween": 4229,
      "Ġlie": 4230,
      "ifl": 4231,
      "aulifl": 4232,
      "Ġcheek": 4233,
      "Ch": 4234,
      "Ġsym": 4235,
      "Ġswung": 4236,
      "Ġfactory": 4237,
      "Ġcups": 4238,
      "ĠTed": 4239,
      "Ġmotorcycle": 4240,
      "Ġchirp": 4241,
      "Ġmos": 4242,
      "quito": 4243,
      "Ġflame": 4244,
      "Ġtwink": 4245,
      "Ġshouting": 4246,
      "..": 4247,
      "nament": 4248,
      "Ġpainter": 4249,
      "Ġgolf": 4250,
      "Ġpeach": 4251,
      "Ġornament": 4252,
      "kelet": 4253,
      "Ġblowing": 4254,
      "Ġhut": 4255,
      "Ġsung": 4256,
      "affe": 4257,
      "Ġhotel": 4258,
      "Ġseeing": 4259,
      "Ġcaulifl": 4260,
      "Ġfolder": 4261,
      "Ġvendor": 4262,
      "ccer": 4263,
      "ĠMimi": 4264,
      "lass": 4265,
      "Ġvideo": 4266,
      "Ġmixer": 4267,
      "pe": 4268,
      "ab": 4269,
      "izes": 4270,
      "bol": 4271,
      "Ġthrows": 4272,
      "Ġpirates": 4273,
      "Ġcreated": 4274,
      "orses": 4275,
      "Ġheads": 4276,
      "Ġoil": 4277,
      "Ġkay": 4278,
      "Ġframe": 4279,
      "Ġmosquito": 4280,
      "angu": 4281,
      "Ġcushion": 4282,
      "mm": 4283,
      "Ġsoccer": 4284,
      "ĠMaria": 4285,
      "Ġfisherman": 4286,
      "Ġcoal": 4287,
      "ĠBun": 4288,
      "zzy": 4289,
      "Ġsymbol": 4290,
      "Ġhorses": 4291,
      "Ġcable": 4292,
      "ceros": 4293,
      "Ġpopped": 4294,
      "Ġlangu": 4295,
      "Ġwipe": 4296,
      "Ġpine": 4297,
      "ĠBaby": 4298,
      "Ġattention": 4299,
      "Ġskelet": 4300,
      "Ġbattery": 4301,
      "Ġpowder": 4302,
      "Ġcauliflower": 4303,
      "Ġstud": 4304,
      "Ġlaser": 4305,
      "ef": 4306,
      "render": 4307,
      "Ġforgotten": 4308,
      "Ġweather": 4309,
      "ĠLilly": 4310,
      "rod": 4311,
      "Ġlives": 4312,
      "Ġmop": 4313,
      "osie": 4314,
      "Ġcelebrated": 4315,
      "Ġfishing": 4316,
      "Ġax": 4317,
      "Ġrot": 4318,
      "Ġsince": 4319,
      "Ġtrail": 4320,
      "ĠIÃ¢": 4321,
      "elcome": 4322,
      "Ġmaze": 4323,
      "aws": 4324,
      "Ġphoto": 4325,
      "ĠGod": 4326,
      "ites": 4327,
      "Ġyoga": 4328,
      "Ġsurround": 4329,
      "ĠRo": 4330,
      "Ġwaving": 4331,
      "ĠGrace": 4332,
      "Ġslept": 4333,
      "Ġsneak": 4334,
      "Ġanch": 4335,
      "Ġdear": 4336,
      "unately": 4337,
      "Ġgiraffe": 4338,
      "Ġintrod": 4339,
      "Ġrhinoceros": 4340,
      "Ġpoke": 4341,
      "Ġswamp": 4342,
      "Inside": 4343,
      "Ġflea": 4344,
      "Ġpoints": 4345,
      "Ġitch": 4346,
      "Ġpoint": 4347,
      "Ġglowing": 4348,
      "ĠitÃ¢": 4349,
      "Ġfireplace": 4350,
      "Ġbreeze": 4351,
      "ney": 4352,
      "lasses": 4353,
      "Your": 4354,
      "Ġsub": 4355,
      "Ġvet": 4356,
      "Ġsunglasses": 4357,
      "Ġkingdom": 4358,
      "ĠAnnie": 4359,
      "Ġmemories": 4360,
      "ĠCharlie": 4361,
      "Ġtutor": 4362,
      "Ġstreng": 4363,
      "Ġtuna": 4364,
      "Ġiron": 4365,
      "Ġreve": 4366,
      "Ġvest": 4367,
      "spap": 4368,
      "ĠSandy": 4369,
      "Ġpetals": 4370,
      "Ġfog": 4371,
      "Ġmistakes": 4372,
      "Ġaxe": 4373,
      "Ġcomplain": 4374,
      "Ġbaseball": 4375,
      "Ġdancer": 4376,
      "Ġchickens": 4377,
      "Ġparent": 4378,
      "Ġig": 4379,
      "hero": 4380,
      "Ġnewspap": 4381,
      "Ġstrength": 4382,
      "Ġgreedy": 4383,
      "Ġceiling": 4384,
      "ckey": 4385,
      "Ġsquirrels": 4386,
      "Ġhockey": 4387,
      "Ġigloo": 4388,
      "Ġsir": 4389,
      "Ġgrin": 4390,
      "Ġanchor": 4391,
      "Ġskeleton": 4392,
      "rosc": 4393,
      "Ġsniffed": 4394,
      "Ġgrocer": 4395,
      "Ġsuperhero": 4396,
      "Ġargue": 4397,
      "ĠUn": 4398,
      "Ġnapkin": 4399,
      "chie": 4400,
      "Eventually": 4401,
      "Ġgolden": 4402,
      "ues": 4403,
      "Ġhanging": 4404,
      "Ġtrave": 4405,
      "Ġmusician": 4406,
      "medi": 4407,
      "Ġskirt": 4408,
      "ĠTony": 4409,
      "roscope": 4410,
      "Ġstaff": 4411,
      "Ġtemple": 4412,
      "Ġunif": 4413,
      "Ġagree": 4414,
      "Ġsque": 4415,
      "Ġbury": 4416,
      "mediately": 4417,
      "Ġtheater": 4418,
      "Ġdiscu": 4419,
      "Ġuniform": 4420,
      "Ġeaten": 4421,
      "ĠJess": 4422,
      "Ġslipper": 4423,
      "Ġwelcomed": 4424,
      "Ġseas": 4425,
      "Ġshoulder": 4426,
      "Thanks": 4427,
      "Ġzipper": 4428,
      "Ġquietly": 4429,
      "ssible": 4430,
      "Ġmeeting": 4431,
      "Ġlime": 4432,
      "Ġinvest": 4433,
      "istol": 4434,
      "Ġmicroscope": 4435,
      "Ġpinch": 4436,
      "chair": 4437,
      "Ġflapped": 4438,
      "Ġslippery": 4439,
      "Ġaccepted": 4440,
      "Ġfought": 4441,
      "Ġinvestig": 4442,
      "Ġpistol": 4443,
      "erc": 4444,
      "Ġdoors": 4445,
      "Ġminer": 4446,
      "reek": 4447,
      "Ġradish": 4448,
      "Ġplastic": 4449,
      "Ġthrowing": 4450,
      "Ġcalls": 4451,
      "Ġbouncing": 4452,
      "tress": 4453,
      "Today": 4454,
      "Ġmattress": 4455,
      "men": 4456,
      "ĠInstead": 4457,
      "Ġsurrender": 4458,
      "Ġcob": 4459,
      "aces": 4460,
      "house": 4461,
      "Ġpear": 4462,
      "Ġcreek": 4463,
      "Ġvroom": 4464,
      "Ġkayak": 4465,
      "Emma": 4466,
      "tain": 4467,
      "Ġmoves": 4468,
      "Ġsticky": 4469,
      "Qu": 4470,
      "Ġlawy": 4471,
      "Wait": 4472,
      "ĠHenry": 4473,
      "Ġnovel": 4474,
      "alley": 4475,
      "Ġcub": 4476,
      "Ġavocado": 4477,
      "Ġcared": 4478,
      "Ġsuff": 4479,
      "Ġfreezer": 4480,
      "Ġlotion": 4481,
      "aud": 4482,
      "case": 4483,
      "ler": 4484,
      "ison": 4485,
      "ĠMillie": 4486,
      "te": 4487,
      "was": 4488,
      "Ġfauc": 4489,
      "anny": 4490,
      "Ġarmchair": 4491,
      "Ġwriting": 4492,
      "inked": 4493,
      "Ġreef": 4494,
      "Ġmakeup": 4495,
      "Ġmystery": 4496,
      "Ġvalley": 4497,
      "web": 4498,
      "Ġtug": 4499,
      "Ġinvestigate": 4500,
      "Ġnews": 4501,
      "Ġsailing": 4502,
      "Ġcherries": 4503,
      "Ġregret": 4504,
      "Ġcrib": 4505,
      "washer": 4506,
      "imney": 4507,
      "Ġexerc": 4508,
      "Ġoyster": 4509,
      "Ġfaucet": 4510,
      "Ġagre": 4511,
      "Ġsplashing": 4512,
      "ĠKate": 4513,
      "Ġticket": 4514,
      "Ġcollected": 4515,
      "Ġworth": 4516,
      "Ġchimney": 4517,
      "Ġtoil": 4518,
      "Together": 4519,
      "Ġpresents": 4520,
      "Ġdishwasher": 4521,
      "Ġmagazine": 4522,
      "Ġhappens": 4523,
      "Ġsprayed": 4524,
      "Ġwags": 4525,
      "ÅĵItÃ¢": 4526,
      "Next": 4527,
      "Ġprevent": 4528,
      "Ġcobweb": 4529,
      "Ġquack": 4530,
      "Ġveil": 4531,
      "Ġcastles": 4532,
      "Ġentered": 4533,
      "Ġtear": 4534,
      "Sammy": 4535,
      "Ġshrugged": 4536,
      "Ġhar": 4537,
      "Ġpassport": 4538,
      "Ġapplaud": 4539,
      "Ġchess": 4540,
      "Ġseparate": 4541,
      "Ġscolded": 4542,
      "lend": 4543,
      "ĊĠ": 4544,
      "Ġweigh": 4545,
      "Ġtoilet": 4546,
      "Ġalarm": 4547,
      "ĠDanny": 4548,
      "ives": 4549,
      "Ġblankets": 4550,
      "Ġrake": 4551,
      "Ġignored": 4552,
      "Ġtucked": 4553,
      "Ġlawyer": 4554,
      "Ġchoice": 4555,
      "ived": 4556,
      "Ġhopes": 4557,
      "Ġattach": 4558,
      "Ġcoats": 4559,
      "Ġcandles": 4560,
      "Ġfollows": 4561,
      "Ġkisses": 4562,
      "Ġappro": 4563,
      "Ġclassroom": 4564,
      "ĠRu": 4565,
      "eve": 4566,
      "ring": 4567,
      "Ġpuddles": 4568,
      "Ġeasily": 4569,
      "Ġapart": 4570,
      "ety": 4571,
      "sit": 4572,
      "Ġdisappear": 4573,
      "Ġbeef": 4574,
      "Ġchairs": 4575,
      "Ġburned": 4576,
      "Ġbother": 4577,
      "Ġletting": 4578,
      "Ġstraight": 4579,
      "ĠNext": 4580,
      "eterin": 4581,
      "eterinarian": 4582,
      "Ġyield": 4583,
      "Ġward": 4584,
      "Ġdressed": 4585,
      "Ġcane": 4586,
      "Ġtrusted": 4587,
      "Ġlanguage": 4588,
      "Ġsizes": 4589,
      "Ġveterinarian": 4590,
      "Ġraz": 4591,
      "Ġteleph": 4592,
      "raged": 4593,
      "Ġcaring": 4594,
      "Ġplanes": 4595,
      "Ġwardrobe": 4596,
      "Ġjewelry": 4597,
      "atched": 4598,
      "Ġblinked": 4599,
      "iday": 4600,
      "Ġshower": 4601,
      "Ġrise": 4602,
      "Ann": 4603,
      "Ġmissile": 4604,
      "ĠSu": 4605,
      "Ġkeeping": 4606,
      "Ġlawn": 4607,
      "Ġrequ": 4608,
      "Ġstable": 4609,
      "Ġcabinet": 4610,
      "Ġcrossed": 4611,
      "Ġoak": 4612,
      "ĠHarry": 4613,
      "Ġbookshe": 4614,
      "vision": 4615,
      "Mandy": 4616,
      "Ġstro": 4617,
      "Ġtelephone": 4618,
      "Ġnewspaper": 4619,
      "mend": 4620,
      "Ġclaws": 4621,
      "Ġrooms": 4622,
      "rs": 4623,
      "Ġsigh": 4624,
      "Ġpuzzles": 4625,
      "Ġaut": 4626,
      "Ġtrade": 4627,
      "Ġincre": 4628,
      "ival": 4629,
      "Ġcell": 4630,
      "Ġwhisper": 4631,
      "Ġtornado": 4632,
      "Ġscratch": 4633,
      "una": 4634,
      "anges": 4635,
      "Ġbookcase": 4636,
      "Ġinf": 4637,
      "ampoo": 4638,
      "Ġblueberries": 4639,
      "Ġsnap": 4640,
      "Ġamazement": 4641,
      "ĠMiss": 4642,
      "Ġperfu": 4643,
      "ction": 4644,
      "ommend": 4645,
      "Ġsqueezed": 4646,
      "Ġbookshelf": 4647,
      "Because": 4648,
      "Ġrecommend": 4649,
      "Ġopera": 4650,
      "ĠRosie": 4651,
      "Ġsubway": 4652,
      "Ġpra": 4653,
      "atie": 4654,
      "Ġgym": 4655,
      "Ġdelay": 4656,
      "Ġgrill": 4657,
      "ĠSee": 4658,
      "ĠAb": 4659,
      "Ġrazor": 4660,
      "Ġblouse": 4661,
      "Ġrequest": 4662,
      "Ġcrawling": 4663,
      "ĠHelp": 4664,
      "Ġpur": 4665,
      "Ġpoked": 4666,
      "âĤ¬.": 4667,
      "Ġtelevision": 4668,
      "Ġbill": 4669,
      "Ġhol": 4670,
      "ggy": 4671,
      "Ġfollowing": 4672,
      "omes": 4673,
      "iction": 4674,
      "Ġshampoo": 4675,
      "ĠTrue": 4676,
      "Ġfile": 4677,
      "Ġlicks": 4678,
      "Ġspear": 4679,
      "Ġsqueeze": 4680,
      "Ġholiday": 4681,
      "Ġexperience": 4682,
      "Ġlumber": 4683,
      "Ġimprove": 4684,
      "Ġmint": 4685,
      "Ġperfume": 4686,
      "Ġserve": 4687,
      "Ġdemand": 4688,
      "Ġsteam": 4689,
      "Ġcliff": 4690,
      "Ġringing": 4691,
      "Ġcrow": 4692,
      "fortunately": 4693,
      "ictionary": 4694,
      "Is": 4695,
      "bbie": 4696,
      "Ġribbon": 4697,
      "ah": 4698,
      "Ġimmediately": 4699,
      "Ġhelper": 4700,
      "Ġmuffin": 4701,
      "Ġfest": 4702,
      "Ġgrowled": 4703,
      "Ġisn": 4704,
      "Ġbegged": 4705,
      "Ġdictionary": 4706,
      "Ġmatches": 4707,
      "Ġshrink": 4708,
      "Ġwaste": 4709,
      "Ġblood": 4710,
      "Ġbirdc": 4711,
      "Ġprop": 4712,
      "Ġideas": 4713,
      "Ġwarmth": 4714,
      "ib": 4715,
      "Ġmustache": 4716,
      "Ġsneeze": 4717,
      "ores": 4718,
      "ĠJul": 4719,
      "Ġinvite": 4720,
      "hic": 4721,
      "Ġgear": 4722,
      "Ġbirdcage": 4723,
      "Ġvehic": 4724,
      "ups": 4725,
      "Ġfuel": 4726,
      "Ġalright": 4727,
      "Ġrabbits": 4728,
      "uckily": 4729,
      "asis": 4730,
      "Ġcalend": 4731,
      "Ġweep": 4732,
      "Ġyucky": 4733,
      "Ġflutter": 4734,
      "Ġinstr": 4735,
      "Ġfallen": 4736,
      "Ġmarried": 4737,
      "ĠRe": 4738,
      "Ġberry": 4739,
      "lier": 4740,
      "Ġrail": 4741,
      "Ġrow": 4742,
      "Ġpastry": 4743,
      "Did": 4744,
      "Ġrefre": 4745,
      "ucture": 4746,
      "Ġworms": 4747,
      "Ġstructure": 4748,
      "Ġlaught": 4749,
      "Ġsurprises": 4750,
      "Ġbravely": 4751,
      "Ġbelow": 4752,
      "Ġcalendar": 4753,
      "Ġoasis": 4754,
      "ĠClara": 4755,
      "Ġwandered": 4756,
      "Ġble": 4757,
      "Will": 4758,
      "Ġwigg": 4759,
      "Ġkneel": 4760,
      "ising": 4761,
      "Ġdire": 4762,
      "Ġunderstanding": 4763,
      "Ġhurting": 4764,
      "Ġlaughter": 4765,
      "omeday": 4766,
      "Ġdrain": 4767,
      "Ġpages": 4768,
      "Ok": 4769,
      "Ġhearts": 4770,
      "Ġenter": 4771,
      "Ġairpl": 4772,
      "inky": 4773,
      "Ġitem": 4774,
      "ĠIs": 4775,
      "omob": 4776,
      "Ġharb": 4777,
      "Ġreaches": 4778,
      "Ġapron": 4779,
      "asp": 4780,
      "Ġsafety": 4781,
      "Ġfloat": 4782,
      "Ġcrash": 4783,
      "Ġautomob": 4784,
      "Ġbathe": 4785,
      "Ġburied": 4786,
      "Ġjunk": 4787,
      "ÅĵNo": 4788,
      "Ġbuckle": 4789,
      "Ġadmir": 4790,
      "Ġroot": 4791,
      "Ġcaptain": 4792,
      "Ġstrawberries": 4793,
      "Ġmyself": 4794,
      "achel": 4795,
      "Ġrelaxed": 4796,
      "Ġsandcastle": 4797,
      "oral": 4798,
      "Ġignore": 4799,
      "Ġskills": 4800,
      "Welcome": 4801,
      "Ġplates": 4802,
      "Lisa": 4803,
      "'ve": 4804,
      "Ġwhip": 4805,
      "ĠKing": 4806,
      "Ġspade": 4807,
      "Ġmoments": 4808,
      "ĠFo": 4809,
      "Ġreverse": 4810,
      "htray": 4811,
      "ĠWho": 4812,
      "icing": 4813,
      "Ġquiz": 4814,
      "Ġashtray": 4815,
      "Ġfestival": 4816,
      "ari": 4817,
      "Ġbeamed": 4818,
      "'.": 4819,
      "Ġsnapped": 4820,
      "riger": 4821,
      "Ġsomeday": 4822,
      "cakes": 4823,
      "Ġrefriger": 4824,
      "Ġraise": 4825,
      "Ġreceived": 4826,
      "Yuck": 4827,
      "Ġrefrigerator": 4828,
      "Ġearlier": 4829,
      "Ġtong": 4830,
      "Ġlic": 4831,
      "ĠFreddy": 4832,
      "Ġweap": 4833,
      "Ġvac": 4834,
      "Ġteaching": 4835,
      "Ġmass": 4836,
      "Ġharbor": 4837,
      "ĠPeople": 4838,
      "Ġmodel": 4839,
      "ĠSnowy": 4840,
      "Ġsparkling": 4841,
      "Ġspots": 4842,
      "aped": 4843,
      "Ġinsisted": 4844,
      "Ġsaving": 4845,
      "Ġvanished": 4846,
      "Ġsocks": 4847,
      "Ġbumped": 4848,
      "ĠIts": 4849,
      "Ġthumb": 4850,
      "anna": 4851,
      "Ġdried": 4852,
      "Ġsupply": 4853,
      "ission": 4854,
      "Ġblackboard": 4855,
      "igail": 4856,
      "Ġprepare": 4857,
      "Ġjail": 4858,
      "Ġjewels": 4859,
      "Ġspending": 4860,
      "Ġbalan": 4861,
      "Ġscattered": 4862,
      "ĠBefore": 4863,
      "xy": 4864,
      "Ġtoes": 4865,
      "Ġscooped": 4866,
      "Ġsettled": 4867,
      "Ġpermission": 4868,
      "Ġsparkle": 4869,
      "Ġknown": 4870,
      "ctly": 4871,
      "Ġbreathe": 4872,
      "Ġboot": 4873,
      "Ġyawned": 4874,
      "Ġres": 4875,
      "ĠMay": 4876,
      "With": 4877,
      "amber": 4878,
      "ĠJames": 4879,
      "Ġachie": 4880,
      "Ġdestroyed": 4881,
      "Ġbathrobe": 4882,
      "Ġtease": 4883,
      "Ġremain": 4884,
      "Ġhardly": 4885,
      "Ġencouraged": 4886,
      "Ġreplace": 4887,
      "Ġwaffle": 4888,
      "antly": 4889,
      "Ġpride": 4890,
      "Ġlemonade": 4891,
      "Ġdare": 4892,
      "Ġhanger": 4893,
      "Ġsits": 4894,
      "Ġpulling": 4895,
      "ĠHave": 4896,
      "Ġdecorations": 4897,
      "sters": 4898,
      "ops": 4899,
      "Ġremove": 4900,
      "Peter": 4901,
      "Ġcuddled": 4902,
      "Ġhate": 4903,
      "Ġdaisy": 4904,
      "Ġlicense": 4905,
      "avid": 4906,
      "Ġbeans": 4907,
      "Ġsimp": 4908,
      "Ġport": 4909,
      "Ġrespons": 4910,
      "izard": 4911,
      "Ġpraised": 4912,
      "sing": 4913,
      "reat": 4914,
      "Ġchirping": 4915,
      "Ġhits": 4916,
      "ents": 4917,
      "Ġequ": 4918,
      "Ġfastest": 4919,
      "Ġsuffer": 4920,
      "xture": 4921,
      "Ġbuzzing": 4922,
      "Ġpatiently": 4923,
      "Ġdresses": 4924,
      "Ġmention": 4925,
      "Ġbleed": 4926,
      "sity": 4927,
      "Ġrhy": 4928,
      "Ġautomobile": 4929,
      "nies": 4930,
      "Ġappreciate": 4931,
      "Ġpoppy": 4932,
      "Ġdestination": 4933,
      "Ġtaller": 4934,
      "Ġmall": 4935,
      "osed": 4936,
      "Ġhomes": 4937,
      "Ġnation": 4938,
      "ium": 4939,
      "Ġdigg": 4940,
      "Ġflav": 4941,
      "Ġclimbs": 4942,
      "Ġguy": 4943,
      "Ġwashing": 4944,
      "Ġpalm": 4945,
      "Ġglo": 4946,
      "Ġshot": 4947,
      "Ġlabel": 4948,
      "Emily": 4949,
      "Ġbelieved": 4950,
      "Ġdigging": 4951,
      "All": 4952,
      "Ġapproached": 4953,
      "Ġhesit": 4954,
      "fied": 4955,
      "Mmm": 4956,
      "Ġnone": 4957,
      "Ġtore": 4958,
      "Ġdeeper": 4959,
      "Ġwine": 4960,
      "Ġinfant": 4961,
      "ude": 4962,
      "Ġrestore": 4963,
      "Ġscore": 4964,
      "Ġhers": 4965,
      "ĠTina": 4966,
      "rm": 4967,
      "Ġmitten": 4968,
      "Ġchamber": 4969,
      "ĠOllie": 4970,
      "Ġsausage": 4971,
      "Ġstruggling": 4972,
      "Ġheat": 4973,
      "Ġdifferen": 4974,
      "Ġtongue": 4975,
      "Ġhills": 4976,
      "Ġhurric": 4977,
      "Ġpunish": 4978,
      "Ġpillows": 4979,
      "Ġbillboard": 4980,
      "Ġsneezed": 4981,
      "Ġsport": 4982,
      "Ġwizard": 4983,
      "ĠEach": 4984,
      "Ġupstairs": 4985,
      "Ġthrilled": 4986,
      "Ġprovide": 4987,
      "Ġbrain": 4988,
      "Ġawe": 4989,
      "Ġdiscuss": 4990,
      "Jake": 4991,
      "Ġpanic": 4992,
      "Ġwarning": 4993,
      "Ġtwisted": 4994,
      "Ġglowed": 4995,
      "Ġuniverse": 4996,
      "Ġfiref": 4997,
      "Ġtherm": 4998,
      "Ġvacation": 4999
    },
    "merges": [
      [
        "h",
        "e"
      ],
      [
        "Ġ",
        "t"
      ],
      [
        "Ġ",
        "a"
      ],
      [
        "Ġ",
        "s"
      ],
      [
        "Ġ",
        "w"
      ],
      [
        "n",
        "d"
      ],
      [
        "Ġt",
        "he"
      ],
      [
        "e",
        "d"
      ],
      [
        "Ġa",
        "nd"
      ],
      [
        "Ġt",
        "o"
      ],
      [
        "Ġ",
        "b"
      ],
      [
        "i",
        "n"
      ],
      [
        "Ġ",
        "h"
      ],
      [
        "Ġw",
        "a"
      ],
      [
        "r",
        "e"
      ],
      [
        "o",
        "u"
      ],
      [
        "Ġ",
        "f"
      ],
      [
        "i",
        "t"
      ],
      [
        "Ġ",
        "l"
      ],
      [
        "Ġ",
        "c"
      ],
      [
        "Ġ",
        "d"
      ],
      [
        "e",
        "r"
      ],
      [
        "Ġ",
        "he"
      ],
      [
        "Ġ",
        "m"
      ],
      [
        "Ġ",
        "p"
      ],
      [
        "Ġwa",
        "s"
      ],
      [
        "o",
        "m"
      ],
      [
        "Ġ",
        "T"
      ],
      [
        "Ġ",
        "o"
      ],
      [
        "a",
        "y"
      ],
      [
        "a",
        "r"
      ],
      [
        "i",
        "s"
      ],
      [
        "in",
        "g"
      ],
      [
        "i",
        "l"
      ],
      [
        "Ġ",
        "g"
      ],
      [
        "i",
        "d"
      ],
      [
        "a",
        "t"
      ],
      [
        "e",
        "n"
      ],
      [
        "Ġ",
        "n"
      ],
      [
        "Ġs",
        "a"
      ],
      [
        "Ġh",
        "a"
      ],
      [
        "Ġ",
        "S"
      ],
      [
        "ĠT",
        "he"
      ],
      [
        "a",
        "n"
      ],
      [
        "i",
        "m"
      ],
      [
        "o",
        "r"
      ],
      [
        "o",
        "n"
      ],
      [
        "Ġ",
        "it"
      ],
      [
        "Ġt",
        "h"
      ],
      [
        "l",
        "l"
      ],
      [
        "l",
        "e"
      ],
      [
        "Ġ",
        "H"
      ],
      [
        "Ġhe",
        "r"
      ],
      [
        "o",
        "t"
      ],
      [
        "e",
        "t"
      ],
      [
        "i",
        "r"
      ],
      [
        "ĠS",
        "he"
      ],
      [
        "e",
        "s"
      ],
      [
        "ĠH",
        "e"
      ],
      [
        "Ġ",
        "in"
      ],
      [
        "v",
        "er"
      ],
      [
        "u",
        "t"
      ],
      [
        "o",
        "w"
      ],
      [
        "ĠThe",
        "y"
      ],
      [
        "c",
        "k"
      ],
      [
        "Ġ",
        "e"
      ],
      [
        "Ġ",
        "u"
      ],
      [
        "l",
        "d"
      ],
      [
        "Ġ",
        "y"
      ],
      [
        "o",
        "o"
      ],
      [
        "Ġsa",
        "id"
      ],
      [
        "i",
        "g"
      ],
      [
        "Ġ",
        "\""
      ],
      [
        "il",
        "y"
      ],
      [
        "Ġ",
        "r"
      ],
      [
        "Ġb",
        "e"
      ],
      [
        "a",
        "m"
      ],
      [
        "Ġs",
        "t"
      ],
      [
        "Ġ",
        "I"
      ],
      [
        "c",
        "e"
      ],
      [
        "k",
        "e"
      ],
      [
        "Ġs",
        "he"
      ],
      [
        "v",
        "e"
      ],
      [
        "p",
        "p"
      ],
      [
        "it",
        "h"
      ],
      [
        "Ġw",
        "ith"
      ],
      [
        "L",
        "ily"
      ],
      [
        "O",
        "n"
      ],
      [
        "Ġo",
        "n"
      ],
      [
        "Ġy",
        "ou"
      ],
      [
        "Ġo",
        "f"
      ],
      [
        "k",
        "ed"
      ],
      [
        "r",
        "i"
      ],
      [
        "Ġs",
        "o"
      ],
      [
        "n",
        "t"
      ],
      [
        "Ġh",
        "is"
      ],
      [
        "Ġp",
        "l"
      ],
      [
        "a",
        "d"
      ],
      [
        "ver",
        "y"
      ],
      [
        "Ġd",
        "ay"
      ],
      [
        "Ġth",
        "at"
      ],
      [
        "Ġu",
        "p"
      ],
      [
        "Ġpl",
        "ay"
      ],
      [
        "Ġha",
        "d"
      ],
      [
        "s",
        "t"
      ],
      [
        "Ġthe",
        "y"
      ],
      [
        "Ġw",
        "e"
      ],
      [
        "Ġ",
        "Lily"
      ],
      [
        "Ġm",
        "om"
      ],
      [
        "Ġf",
        "or"
      ],
      [
        "Ġ",
        "B"
      ],
      [
        "e",
        "l"
      ],
      [
        "u",
        "n"
      ],
      [
        "ou",
        "ld"
      ],
      [
        "'",
        "s"
      ],
      [
        "m",
        "y"
      ],
      [
        "T",
        "he"
      ],
      [
        "Ġl",
        "i"
      ],
      [
        "c",
        "h"
      ],
      [
        "en",
        "t"
      ],
      [
        "Ġha",
        "pp"
      ],
      [
        "Ġwa",
        "nt"
      ],
      [
        "it",
        "t"
      ],
      [
        "Ġs",
        "h"
      ],
      [
        "ou",
        "t"
      ],
      [
        "he",
        "r"
      ],
      [
        "Ġd",
        "o"
      ],
      [
        "l",
        "y"
      ],
      [
        "Ġn",
        "ot"
      ],
      [
        "om",
        "e"
      ],
      [
        "s",
        "e"
      ],
      [
        "Ġ",
        "very"
      ],
      [
        "ou",
        "nd"
      ],
      [
        "e",
        "nd"
      ],
      [
        "a",
        "ll"
      ],
      [
        "Ġw",
        "h"
      ],
      [
        "im",
        "e"
      ],
      [
        "itt",
        "le"
      ],
      [
        "Ġ",
        "k"
      ],
      [
        "Ġt",
        "ime"
      ],
      [
        "Ġl",
        "ittle"
      ],
      [
        "a",
        "l"
      ],
      [
        "Ġthe",
        "re"
      ],
      [
        "Ġn",
        "e"
      ],
      [
        "h",
        "t"
      ],
      [
        "Ġ",
        "M"
      ],
      [
        "Ġ",
        "re"
      ],
      [
        "Ġhapp",
        "y"
      ],
      [
        "Ġs",
        "m"
      ],
      [
        "Ġb",
        "ig"
      ],
      [
        "Ġ",
        "is"
      ],
      [
        "Ġ",
        "Ċ"
      ],
      [
        "ĠI",
        "t"
      ],
      [
        "Ġb",
        "ut"
      ],
      [
        "a",
        "ck"
      ],
      [
        "Ġa",
        "n"
      ],
      [
        "Ġsa",
        "w"
      ],
      [
        "ri",
        "end"
      ],
      [
        ".",
        "\""
      ],
      [
        "Ġf",
        "riend"
      ],
      [
        "r",
        "y"
      ],
      [
        "Ġa",
        "s"
      ],
      [
        "r",
        "a"
      ],
      [
        "On",
        "e"
      ],
      [
        "id",
        "e"
      ],
      [
        "a",
        "ke"
      ],
      [
        "'",
        "t"
      ],
      [
        "!",
        "\""
      ],
      [
        "u",
        "g"
      ],
      [
        "Ġl",
        "oo"
      ],
      [
        "v",
        "ed"
      ],
      [
        "t",
        "er"
      ],
      [
        "Ġwe",
        "re"
      ],
      [
        "o",
        "re"
      ],
      [
        "On",
        "ce"
      ],
      [
        "Ġl",
        "o"
      ],
      [
        "e",
        "c"
      ],
      [
        "Ġh",
        "im"
      ],
      [
        "Ġto",
        "o"
      ],
      [
        "Ġg",
        "o"
      ],
      [
        "Ġb",
        "o"
      ],
      [
        "Ġs",
        "e"
      ],
      [
        "ir",
        "l"
      ],
      [
        "Ġa",
        "re"
      ],
      [
        "Ġ",
        "j"
      ],
      [
        "ĠT",
        "im"
      ],
      [
        "ar",
        "d"
      ],
      [
        "Ġwant",
        "ed"
      ],
      [
        "il",
        "l"
      ],
      [
        "Ġg",
        "irl"
      ],
      [
        "Ġup",
        "on"
      ],
      [
        "Ġthe",
        "m"
      ],
      [
        "Ġ",
        "out"
      ],
      [
        "Ġa",
        "t"
      ],
      [
        "u",
        "r"
      ],
      [
        "i",
        "nd"
      ],
      [
        "Ġthe",
        "ir"
      ],
      [
        "f",
        "u"
      ],
      [
        "Ġs",
        "p"
      ],
      [
        "w",
        "ay"
      ],
      [
        "Ġ",
        "A"
      ],
      [
        "Ġsm",
        "il"
      ],
      [
        "Ġd",
        "id"
      ],
      [
        "Ġc",
        "ould"
      ],
      [
        "he",
        "n"
      ],
      [
        "Ġha",
        "ve"
      ],
      [
        "a",
        "in"
      ],
      [
        "ar",
        "t"
      ],
      [
        "Ġe",
        "x"
      ],
      [
        "he",
        "d"
      ],
      [
        "r",
        "om"
      ],
      [
        "Ġw",
        "ent"
      ],
      [
        "Ġa",
        "r"
      ],
      [
        "i",
        "c"
      ],
      [
        "Ġc",
        "an"
      ],
      [
        "Ġ",
        "J"
      ],
      [
        "l",
        "p"
      ],
      [
        "fu",
        "l"
      ],
      [
        "ĠB",
        "en"
      ],
      [
        "oo",
        "d"
      ],
      [
        "?",
        "\""
      ],
      [
        "h",
        "ing"
      ],
      [
        "Ġfriend",
        "s"
      ],
      [
        "Ġn",
        "am"
      ],
      [
        "ig",
        "ht"
      ],
      [
        "Ġa",
        "ll"
      ],
      [
        "Ġhe",
        "lp"
      ],
      [
        "Ġk",
        "n"
      ],
      [
        "u",
        "m"
      ],
      [
        "on",
        "e"
      ],
      [
        "ar",
        "k"
      ],
      [
        "Ġb",
        "ack"
      ],
      [
        "Ġs",
        "ay"
      ],
      [
        "Y",
        "ou"
      ],
      [
        "Ġf",
        "un"
      ],
      [
        "Ġc",
        "l"
      ],
      [
        "ĠT",
        "om"
      ],
      [
        "a",
        "re"
      ],
      [
        "Ġn",
        "o"
      ],
      [
        "Ġl",
        "e"
      ],
      [
        "o",
        "p"
      ],
      [
        "Ġsmil",
        "ed"
      ],
      [
        "Ġs",
        "c"
      ],
      [
        "Ġnam",
        "ed"
      ],
      [
        "Ġa",
        "l"
      ],
      [
        "ou",
        "g"
      ],
      [
        "Ġlo",
        "ved"
      ],
      [
        "s",
        "ide"
      ],
      [
        "el",
        "t"
      ],
      [
        "Ġ",
        "One"
      ],
      [
        "Ġm",
        "an"
      ],
      [
        "Ġas",
        "ked"
      ],
      [
        "i",
        "ck"
      ],
      [
        "Ġto",
        "y"
      ],
      [
        "Ġli",
        "ke"
      ],
      [
        "Ġf",
        "e"
      ],
      [
        "Ġf",
        "elt"
      ],
      [
        "Ġloo",
        "ked"
      ],
      [
        "Ġs",
        "ome"
      ],
      [
        "Ġar",
        "ound"
      ],
      [
        "Ġse",
        "e"
      ],
      [
        "Ġm",
        "e"
      ],
      [
        "am",
        "e"
      ],
      [
        "om",
        "et"
      ],
      [
        "Ġ",
        "W"
      ],
      [
        "Ġr",
        "o"
      ],
      [
        "Ġb",
        "r"
      ],
      [
        "u",
        "re"
      ],
      [
        "ĠTim",
        "my"
      ],
      [
        "Ġb",
        "ir"
      ],
      [
        "g",
        "et"
      ],
      [
        "i",
        "ce"
      ],
      [
        "Ġbo",
        "y"
      ],
      [
        "Ġw",
        "ould"
      ],
      [
        "Ġst",
        "art"
      ],
      [
        "on",
        "g"
      ],
      [
        "Ã",
        "¢"
      ],
      [
        "â",
        "Ĥ"
      ],
      [
        "âĤ",
        "¬"
      ],
      [
        "s",
        "s"
      ],
      [
        "Ġbir",
        "d"
      ],
      [
        "Ġs",
        "omet"
      ],
      [
        "Ġf",
        "a"
      ],
      [
        "d",
        "d"
      ],
      [
        "ing",
        "s"
      ],
      [
        "Ġa",
        "g"
      ],
      [
        "Ġw",
        "or"
      ],
      [
        "Ġwh",
        "at"
      ],
      [
        "ad",
        "e"
      ],
      [
        "Ġm",
        "ake"
      ],
      [
        "k",
        "ing"
      ],
      [
        ",",
        "\""
      ],
      [
        "i",
        "e"
      ],
      [
        "ĠB",
        "ut"
      ],
      [
        "ow",
        "n"
      ],
      [
        "Ġt",
        "re"
      ],
      [
        "Ġr",
        "an"
      ],
      [
        "get",
        "her"
      ],
      [
        "Ġ",
        "You"
      ],
      [
        "Ġa",
        "way"
      ],
      [
        "a",
        "g"
      ],
      [
        "ar",
        "ed"
      ],
      [
        "Ġsay",
        "s"
      ],
      [
        "Ġstart",
        "ed"
      ],
      [
        "ou",
        "d"
      ],
      [
        "i",
        "f"
      ],
      [
        "Ġm",
        "ade"
      ],
      [
        "Ġc",
        "ar"
      ],
      [
        "Ġsomet",
        "hing"
      ],
      [
        "Ġto",
        "gether"
      ],
      [
        "it",
        "ed"
      ],
      [
        "t",
        "her"
      ],
      [
        "Ġp",
        "ark"
      ],
      [
        "Ġc",
        "o"
      ],
      [
        "Ġsa",
        "d"
      ],
      [
        "Ġo",
        "ther"
      ],
      [
        "Ġne",
        "w"
      ],
      [
        "Ġex",
        "c"
      ],
      [
        "Ġp",
        "ut"
      ],
      [
        "Ġf",
        "rom"
      ],
      [
        "Ġp",
        "r"
      ],
      [
        "e",
        "ll"
      ],
      [
        "Ġ",
        "L"
      ],
      [
        "Ġl",
        "a"
      ],
      [
        "Ġh",
        "ug"
      ],
      [
        "b",
        "le"
      ],
      [
        "Ġm",
        "u"
      ],
      [
        "oo",
        "k"
      ],
      [
        "a",
        "ch"
      ],
      [
        "Ġag",
        "ain"
      ],
      [
        "Ġh",
        "ome"
      ],
      [
        "Ġw",
        "hen"
      ],
      [
        "Ġg",
        "ood"
      ],
      [
        "h",
        "at"
      ],
      [
        "e",
        "p"
      ],
      [
        "Ġwh",
        "o"
      ],
      [
        "es",
        "t"
      ],
      [
        "ri",
        "ed"
      ],
      [
        "Ġf",
        "ound"
      ],
      [
        "Ġf",
        "l"
      ],
      [
        "Ġthe",
        "n"
      ],
      [
        "Ġc",
        "h"
      ],
      [
        "Ġd",
        "ec"
      ],
      [
        "pp",
        "ed"
      ],
      [
        "Ġwa",
        "l"
      ],
      [
        "a",
        "s"
      ],
      [
        "Ġg",
        "et"
      ],
      [
        "q",
        "u"
      ],
      [
        "Ġplay",
        "ing"
      ],
      [
        "oug",
        "ht"
      ],
      [
        "p",
        "l"
      ],
      [
        "Ġ",
        "E"
      ],
      [
        "all",
        "y"
      ],
      [
        "Ġs",
        "w"
      ],
      [
        "ou",
        "s"
      ],
      [
        "n",
        "n"
      ],
      [
        "Ġth",
        "ings"
      ],
      [
        "Ġexc",
        "ited"
      ],
      [
        "Ġli",
        "ked"
      ],
      [
        "Ġg",
        "ot"
      ],
      [
        "u",
        "ck"
      ],
      [
        "r",
        "o"
      ],
      [
        "id",
        "ed"
      ],
      [
        "Ġdec",
        "ided"
      ],
      [
        "Ġb",
        "l"
      ],
      [
        "a",
        "ve"
      ],
      [
        "Ġc",
        "ame"
      ],
      [
        "Ġe",
        "very"
      ],
      [
        "ar",
        "a"
      ],
      [
        "Ġyou",
        "r"
      ],
      [
        "Ġ",
        "D"
      ],
      [
        "ĠM",
        "om"
      ],
      [
        "a",
        "x"
      ],
      [
        "Ġ",
        "v"
      ],
      [
        "Ġsc",
        "ared"
      ],
      [
        "u",
        "st"
      ],
      [
        "Ġon",
        "e"
      ],
      [
        "Ġdo",
        "g"
      ],
      [
        "Ġd",
        "own"
      ],
      [
        "ou",
        "se"
      ],
      [
        "n",
        "y"
      ],
      [
        "Ġf",
        "ind"
      ],
      [
        "Ġc",
        "are"
      ],
      [
        "Ġbe",
        "c"
      ],
      [
        "is",
        "t"
      ],
      [
        "Ġth",
        "an"
      ],
      [
        "Ġfe",
        "el"
      ],
      [
        "a",
        "p"
      ],
      [
        "u",
        "e"
      ],
      [
        "u",
        "dd"
      ],
      [
        "nn",
        "a"
      ],
      [
        "Ġd",
        "ad"
      ],
      [
        "Ġa",
        "b"
      ],
      [
        "The",
        "y"
      ],
      [
        "Ġm",
        "y"
      ],
      [
        "Ġloo",
        "k"
      ],
      [
        "Ġ",
        "ke"
      ],
      [
        "ou",
        "r"
      ],
      [
        "Ġw",
        "ill"
      ],
      [
        "ar",
        "n"
      ],
      [
        "Ġg",
        "r"
      ],
      [
        "u",
        "s"
      ],
      [
        "nd",
        "er"
      ],
      [
        "Ġg",
        "ra"
      ],
      [
        "way",
        "s"
      ],
      [
        "es",
        "s"
      ],
      [
        "Ġdid",
        "n"
      ],
      [
        "Ġp",
        "o"
      ],
      [
        "f",
        "e"
      ],
      [
        "Ġal",
        "ways"
      ],
      [
        "Ġtoo",
        "k"
      ],
      [
        "Ġab",
        "out"
      ],
      [
        "an",
        "t"
      ],
      [
        "b",
        "b"
      ],
      [
        "Ġl",
        "ot"
      ],
      [
        "Ġmom",
        "my"
      ],
      [
        "Ġtoy",
        "s"
      ],
      [
        "Ġkn",
        "e"
      ],
      [
        "er",
        "s"
      ],
      [
        "is",
        "e"
      ],
      [
        "it",
        "e"
      ],
      [
        "Ġout",
        "side"
      ],
      [
        "Ġtre",
        "e"
      ],
      [
        "Ġth",
        "ought"
      ],
      [
        "Ġb",
        "all"
      ],
      [
        "Ġ",
        "F"
      ],
      [
        "Ġm",
        "ore"
      ],
      [
        "ec",
        "i"
      ],
      [
        "ĠS",
        "am"
      ],
      [
        "en",
        "ed"
      ],
      [
        "c",
        "hed"
      ],
      [
        "Ġt",
        "a"
      ],
      [
        "Ġo",
        "ld"
      ],
      [
        "Ġh",
        "o"
      ],
      [
        "Ġle",
        "arn"
      ],
      [
        "re",
        "t"
      ],
      [
        "Ġin",
        "t"
      ],
      [
        "g",
        "ed"
      ],
      [
        "Ġkn",
        "ow"
      ],
      [
        "Ġla",
        "ug"
      ],
      [
        "Ġt",
        "ake"
      ],
      [
        "eci",
        "al"
      ],
      [
        "Ġsp",
        "ecial"
      ],
      [
        "Ġs",
        "or"
      ],
      [
        "Ġc",
        "at"
      ],
      [
        "udd",
        "en"
      ],
      [
        "Ġkne",
        "w"
      ],
      [
        "ĠM",
        "ax"
      ],
      [
        "i",
        "ve"
      ],
      [
        "i",
        "a"
      ],
      [
        "Ġp",
        "e"
      ],
      [
        "Ġan",
        "y"
      ],
      [
        "udden",
        "ly"
      ],
      [
        "Ġt",
        "r"
      ],
      [
        "f",
        "ter"
      ],
      [
        "Ġh",
        "ow"
      ],
      [
        "m",
        "a"
      ],
      [
        "Ġsh",
        "ow"
      ],
      [
        "in",
        "k"
      ],
      [
        "Ġsor",
        "ry"
      ],
      [
        "Ġt",
        "w"
      ],
      [
        "B",
        "ut"
      ],
      [
        "Ġmu",
        "ch"
      ],
      [
        "a",
        "u"
      ],
      [
        "is",
        "h"
      ],
      [
        "Ġr",
        "un"
      ],
      [
        "a",
        "nd"
      ],
      [
        "Ġha",
        "nd"
      ],
      [
        "Ġs",
        "l"
      ],
      [
        "v",
        "en"
      ],
      [
        "Ġh",
        "ouse"
      ],
      [
        "Ġo",
        "r"
      ],
      [
        "Ġo",
        "p"
      ],
      [
        "Ġs",
        "k"
      ],
      [
        "Ġm",
        "o"
      ],
      [
        "Ġcl",
        "o"
      ],
      [
        "Ġs",
        "un"
      ],
      [
        "Ġint",
        "o"
      ],
      [
        "Ġt",
        "ried"
      ],
      [
        "Ġin",
        "side"
      ],
      [
        "at",
        "e"
      ],
      [
        "Ġto",
        "ld"
      ],
      [
        "Ġwa",
        "ter"
      ],
      [
        "Ġth",
        "is"
      ],
      [
        "Ġ",
        "en"
      ],
      [
        "an",
        "k"
      ],
      [
        "Ġ",
        "if"
      ],
      [
        "Ġpr",
        "oud"
      ],
      [
        "um",
        "p"
      ],
      [
        "Ġ",
        "qu"
      ],
      [
        "Ġo",
        "ver"
      ],
      [
        "Ġcould",
        "n"
      ],
      [
        "T",
        "om"
      ],
      [
        "d",
        "y"
      ],
      [
        "Ġg",
        "ave"
      ],
      [
        "Ġhe",
        "ard"
      ],
      [
        "ĠS",
        "ara"
      ],
      [
        "Ġne",
        "ver"
      ],
      [
        "b",
        "y"
      ],
      [
        "Ġe",
        "ach"
      ],
      [
        "a",
        "ce"
      ],
      [
        "Ġro",
        "om"
      ],
      [
        "t",
        "y"
      ],
      [
        "Ġex",
        "pl"
      ],
      [
        "ĠE",
        "very"
      ],
      [
        "Ġe",
        "at"
      ],
      [
        "ĠW",
        "e"
      ],
      [
        "ot",
        "her"
      ],
      [
        "au",
        "se"
      ],
      [
        "Ġp",
        "ick"
      ],
      [
        "i",
        "on"
      ],
      [
        "Ġp",
        "ret"
      ],
      [
        "ĠA",
        "nna"
      ],
      [
        "M",
        "om"
      ],
      [
        "Ġplay",
        "ed"
      ],
      [
        "g",
        "e"
      ],
      [
        "et",
        "ter"
      ],
      [
        "Ġj",
        "ust"
      ],
      [
        "a",
        "k"
      ],
      [
        "Ġhug",
        "ged"
      ],
      [
        "Ġg",
        "re"
      ],
      [
        "he",
        "re"
      ],
      [
        "Ġof",
        "f"
      ],
      [
        "Ġc",
        "om"
      ],
      [
        "Ġwa",
        "t"
      ],
      [
        "ot",
        "h"
      ],
      [
        "Ġbo",
        "x"
      ],
      [
        "Ġn",
        "ice"
      ],
      [
        "'",
        "m"
      ],
      [
        "Ġst",
        "r"
      ],
      [
        "Ġbec",
        "ause"
      ],
      [
        "Ġne",
        "ed"
      ],
      [
        "il",
        "e"
      ],
      [
        "Ġman",
        "y"
      ],
      [
        "Ġf",
        "o"
      ],
      [
        "u",
        "c"
      ],
      [
        "Ġj",
        "o"
      ],
      [
        "Ġbe",
        "ar"
      ],
      [
        "Ġsm",
        "all"
      ],
      [
        "i",
        "z"
      ],
      [
        "Ġb",
        "u"
      ],
      [
        "v",
        "ing"
      ],
      [
        "Ġl",
        "ong"
      ],
      [
        "in",
        "e"
      ],
      [
        "g",
        "ry"
      ],
      [
        "im",
        "al"
      ],
      [
        "or",
        "t"
      ],
      [
        "Ġan",
        "imal"
      ],
      [
        "Ġs",
        "n"
      ],
      [
        "oug",
        "h"
      ],
      [
        "Ġt",
        "ry"
      ],
      [
        "Ġu",
        "nt"
      ],
      [
        "il",
        "d"
      ],
      [
        "s",
        "el"
      ],
      [
        "ur",
        "t"
      ],
      [
        "Ġunt",
        "il"
      ],
      [
        "ĠJ",
        "ack"
      ],
      [
        "s",
        "ed"
      ],
      [
        "Ġk",
        "ind"
      ],
      [
        "Ġlearn",
        "ed"
      ],
      [
        "Ġ",
        "im"
      ],
      [
        "Ġlo",
        "ve"
      ],
      [
        "Ġb",
        "etter"
      ],
      [
        "f",
        "t"
      ],
      [
        "Ġfl",
        "ow"
      ],
      [
        "Ġc",
        "all"
      ],
      [
        "Ġd",
        "on"
      ],
      [
        "H",
        "e"
      ],
      [
        "ĠJ",
        "o"
      ],
      [
        "Ġe",
        "nd"
      ],
      [
        "Ġa",
        "d"
      ],
      [
        "u",
        "ll"
      ],
      [
        "Ġb",
        "est"
      ],
      [
        "v",
        "ent"
      ],
      [
        "Y",
        "es"
      ],
      [
        "ar",
        "s"
      ],
      [
        "ur",
        "p"
      ],
      [
        "ad",
        "y"
      ],
      [
        "e",
        "m"
      ],
      [
        "re",
        "am"
      ],
      [
        "a",
        "ut"
      ],
      [
        "ur",
        "n"
      ],
      [
        "ĠM",
        "ia"
      ],
      [
        "Ġc",
        "le"
      ],
      [
        "ĠA",
        "nd"
      ],
      [
        "v",
        "es"
      ],
      [
        "Å",
        "ĵ"
      ],
      [
        "ard",
        "en"
      ],
      [
        "Ġ",
        "C"
      ],
      [
        "Ġg",
        "arden"
      ],
      [
        "Ġfa",
        "st"
      ],
      [
        "Ġcare",
        "ful"
      ],
      [
        "b",
        "er"
      ],
      [
        "Ġbe",
        "aut"
      ],
      [
        "ll",
        "y"
      ],
      [
        "T",
        "h"
      ],
      [
        "Ġe",
        "ven"
      ],
      [
        "p",
        "t"
      ],
      [
        "Ġb",
        "ra"
      ],
      [
        "i",
        "es"
      ],
      [
        "Ġthan",
        "ked"
      ],
      [
        "Ġf",
        "i"
      ],
      [
        "ĠS",
        "o"
      ],
      [
        "Ġc",
        "he"
      ],
      [
        "Ġlaug",
        "hed"
      ],
      [
        "Ġsk",
        "y"
      ],
      [
        "Ġb",
        "y"
      ],
      [
        "I",
        "t"
      ],
      [
        "ĠH",
        "er"
      ],
      [
        "Ġj",
        "ump"
      ],
      [
        "Ġg",
        "l"
      ],
      [
        "a",
        "se"
      ],
      [
        "Ġt",
        "e"
      ],
      [
        "Ġl",
        "oud"
      ],
      [
        "sel",
        "f"
      ],
      [
        "in",
        "y"
      ],
      [
        "Ġwa",
        "y"
      ],
      [
        "w",
        "n"
      ],
      [
        "Ġbeaut",
        "i"
      ],
      [
        "Ġc",
        "ome"
      ],
      [
        "le",
        "w"
      ],
      [
        "Ġl",
        "ist"
      ],
      [
        "Ġw",
        "o"
      ],
      [
        "Ġbeauti",
        "ful"
      ],
      [
        "Ġh",
        "ard"
      ],
      [
        "Ġlot",
        "s"
      ],
      [
        "Ġr",
        "a"
      ],
      [
        "Ġst",
        "ill"
      ],
      [
        "Ġf",
        "am"
      ],
      [
        "Ġanimal",
        "s"
      ],
      [
        "Ġ",
        "Ã¢"
      ],
      [
        "Ġh",
        "urt"
      ],
      [
        "Ġu",
        "nder"
      ],
      [
        "ĠThe",
        "n"
      ],
      [
        "ec",
        "t"
      ],
      [
        "Ġst",
        "ay"
      ],
      [
        "n",
        "ing"
      ],
      [
        "Ġl",
        "et"
      ],
      [
        "c",
        "t"
      ],
      [
        "Ġb",
        "oth"
      ],
      [
        "Ġc",
        "u"
      ],
      [
        "ĠH",
        "is"
      ],
      [
        "he",
        "s"
      ],
      [
        "b",
        "e"
      ],
      [
        "Ġsa",
        "fe"
      ],
      [
        "ĠF",
        "rom"
      ],
      [
        "oo",
        "l"
      ],
      [
        "re",
        "e"
      ],
      [
        "Ġco",
        "l"
      ],
      [
        "Ġtw",
        "o"
      ],
      [
        "Ġb",
        "ad"
      ],
      [
        "Ġb",
        "ook"
      ],
      [
        "Ġim",
        "p"
      ],
      [
        "op",
        "le"
      ],
      [
        "Ġre",
        "m"
      ],
      [
        "an",
        "e"
      ],
      [
        "Ġli",
        "ved"
      ],
      [
        "k",
        "ay"
      ],
      [
        "o",
        "ck"
      ],
      [
        "uc",
        "y"
      ],
      [
        "Ġwal",
        "ked"
      ],
      [
        "T",
        "im"
      ],
      [
        "a",
        "st"
      ],
      [
        "urp",
        "r"
      ],
      [
        "Ġbra",
        "ve"
      ],
      [
        "Ġsh",
        "ould"
      ],
      [
        "Ġit",
        "s"
      ],
      [
        "o",
        "b"
      ],
      [
        "is",
        "hed"
      ],
      [
        "Ġan",
        "gry"
      ],
      [
        "Ġs",
        "urpr"
      ],
      [
        "Ġfam",
        "ily"
      ],
      [
        "re",
        "ss"
      ],
      [
        "ig",
        "h"
      ],
      [
        "W",
        "hen"
      ],
      [
        "Ġpe",
        "ople"
      ],
      [
        "Ġf",
        "lew"
      ],
      [
        "Ġcall",
        "ed"
      ],
      [
        "N",
        "o"
      ],
      [
        "Ġr",
        "ed"
      ],
      [
        "Ġst",
        "or"
      ],
      [
        "i",
        "p"
      ],
      [
        "Ġso",
        "on"
      ],
      [
        "Ġf",
        "in"
      ],
      [
        "h",
        "n"
      ],
      [
        "L",
        "et"
      ],
      [
        "l",
        "ed"
      ],
      [
        "Ġke",
        "pt"
      ],
      [
        "Ġf",
        "ore"
      ],
      [
        "f",
        "ore"
      ],
      [
        "Ġd",
        "an"
      ],
      [
        "Ġsh",
        "are"
      ],
      [
        "Ġf",
        "ly"
      ],
      [
        "x",
        "t"
      ],
      [
        "is",
        "ed"
      ],
      [
        "dd",
        "ed"
      ],
      [
        "Ġp",
        "ic"
      ],
      [
        "âĤ¬",
        "â"
      ],
      [
        "Ġdo",
        "or"
      ],
      [
        "Ġgo",
        "ing"
      ],
      [
        "Ġ",
        "P"
      ],
      [
        "ĠW",
        "hen"
      ],
      [
        "Ġpret",
        "ty"
      ],
      [
        "Ġke",
        "ep"
      ],
      [
        "Ġn",
        "ow"
      ],
      [
        "Ġro",
        "ck"
      ],
      [
        "Ġcle",
        "an"
      ],
      [
        "Ġd",
        "ra"
      ],
      [
        "ar",
        "y"
      ],
      [
        "Ġad",
        "vent"
      ],
      [
        "um",
        "my"
      ],
      [
        "Ġno",
        "ise"
      ],
      [
        "Ġop",
        "ened"
      ],
      [
        "Ġsh",
        "iny"
      ],
      [
        "ag",
        "e"
      ],
      [
        "Ġexpl",
        "ore"
      ],
      [
        "Ġw",
        "ind"
      ],
      [
        "Ġdo",
        "ll"
      ],
      [
        "Ġc",
        "ry"
      ],
      [
        "Ġc",
        "on"
      ],
      [
        "Ġ",
        "ide"
      ],
      [
        "Ġbe",
        "fore"
      ],
      [
        "i",
        "ed"
      ],
      [
        "B",
        "en"
      ],
      [
        "il",
        "ly"
      ],
      [
        "Ġre",
        "al"
      ],
      [
        "Ġst",
        "o"
      ],
      [
        "s",
        "o"
      ],
      [
        "W",
        "hat"
      ],
      [
        "Ġgr",
        "ound"
      ],
      [
        "Ġal",
        "so"
      ],
      [
        "le",
        "s"
      ],
      [
        "Ġt",
        "urn"
      ],
      [
        "Ħ",
        "¢"
      ],
      [
        "âĤ¬â",
        "Ħ¢"
      ],
      [
        "Ġe",
        "y"
      ],
      [
        "T",
        "hat"
      ],
      [
        "Ġf",
        "ar"
      ],
      [
        "Ġide",
        "a"
      ],
      [
        "Ġf",
        "r"
      ],
      [
        "o",
        "on"
      ],
      [
        "Ġno",
        "dded"
      ],
      [
        "Ġcol",
        "or"
      ],
      [
        "Ġwa",
        "r"
      ],
      [
        "o",
        "y"
      ],
      [
        "Ġfeel",
        "ing"
      ],
      [
        "Ġu",
        "n"
      ],
      [
        "Ġpick",
        "ed"
      ],
      [
        "im",
        "b"
      ],
      [
        "t",
        "h"
      ],
      [
        "ĠL",
        "ucy"
      ],
      [
        "Ġne",
        "xt"
      ],
      [
        "Ġwal",
        "king"
      ],
      [
        "t",
        "hing"
      ],
      [
        "t",
        "ure"
      ],
      [
        "ĠD",
        "ad"
      ],
      [
        "Ġcl",
        "imb"
      ],
      [
        "Ġha",
        "s"
      ],
      [
        "u",
        "ch"
      ],
      [
        "Ġm",
        "a"
      ],
      [
        "Ġth",
        "r"
      ],
      [
        "Ġwh",
        "ile"
      ],
      [
        "e",
        "et"
      ],
      [
        "Ġb",
        "ed"
      ],
      [
        "Ġadvent",
        "ure"
      ],
      [
        "Ġsmil",
        "e"
      ],
      [
        "k",
        "es"
      ],
      [
        "ay",
        "be"
      ],
      [
        "Th",
        "ank"
      ],
      [
        "ic",
        "ed"
      ],
      [
        "g",
        "er"
      ],
      [
        "i",
        "ous"
      ],
      [
        "Ġ",
        "G"
      ],
      [
        "Ġbe",
        "ing"
      ],
      [
        "Ġd",
        "if"
      ],
      [
        "Ġw",
        "r"
      ],
      [
        "Ġclo",
        "s"
      ],
      [
        "Ġf",
        "ood"
      ],
      [
        "j",
        "oy"
      ],
      [
        "t",
        "ed"
      ],
      [
        "Ġg",
        "ive"
      ],
      [
        "Ġpic",
        "ture"
      ],
      [
        "Ġth",
        "ink"
      ],
      [
        "ĠS",
        "p"
      ],
      [
        "Ġloo",
        "king"
      ],
      [
        "Ġd",
        "el"
      ],
      [
        "f",
        "f"
      ],
      [
        "a",
        "c"
      ],
      [
        "Ġtr",
        "uck"
      ],
      [
        "Ġwa",
        "it"
      ],
      [
        "Ġey",
        "es"
      ],
      [
        "ug",
        "ht"
      ],
      [
        "Ġto",
        "w"
      ],
      [
        "t",
        "ing"
      ],
      [
        "Ġre",
        "pl"
      ],
      [
        "Ġbr",
        "o"
      ],
      [
        "Ġsto",
        "pped"
      ],
      [
        "Ġlist",
        "en"
      ],
      [
        "Ġa",
        "fter"
      ],
      [
        "Ġb",
        "re"
      ],
      [
        "Ġo",
        "wn"
      ],
      [
        "Ġv",
        "o"
      ],
      [
        "Ġwal",
        "k"
      ],
      [
        "em",
        "ber"
      ],
      [
        "ĠS",
        "uddenly"
      ],
      [
        "Ġwo",
        "nder"
      ],
      [
        "Ġgre",
        "at"
      ],
      [
        "Ġhand",
        "s"
      ],
      [
        "S",
        "uddenly"
      ],
      [
        "Ġsh",
        "out"
      ],
      [
        "Ġhe",
        "ad"
      ],
      [
        "Ġen",
        "joy"
      ],
      [
        "Ġimp",
        "ort"
      ],
      [
        "Ġflow",
        "ers"
      ],
      [
        "Ġe",
        "ver"
      ],
      [
        "Ġnot",
        "iced"
      ],
      [
        "Ġbl",
        "ue"
      ],
      [
        "Ġfore",
        "st"
      ],
      [
        "bb",
        "it"
      ],
      [
        "S",
        "he"
      ],
      [
        "iz",
        "ed"
      ],
      [
        "Ġa",
        "pp"
      ],
      [
        "ir",
        "st"
      ],
      [
        "Ġne",
        "ar"
      ],
      [
        "Ġqu",
        "ick"
      ],
      [
        "Ġd",
        "is"
      ],
      [
        "Ġd",
        "e"
      ],
      [
        "a",
        "ble"
      ],
      [
        "Ġimport",
        "ant"
      ],
      [
        "Ġrem",
        "ember"
      ],
      [
        "Ġf",
        "ish"
      ],
      [
        "ll",
        "ow"
      ],
      [
        "Ġs",
        "ound"
      ],
      [
        "Ġsl",
        "ide"
      ],
      [
        "Ġu",
        "s"
      ],
      [
        "ma",
        "z"
      ],
      [
        "Ġrepl",
        "ied"
      ],
      [
        "Ġa",
        "maz"
      ],
      [
        "Ġa",
        "c"
      ],
      [
        "le",
        "ase"
      ],
      [
        "Ġwor",
        "k"
      ],
      [
        "Ġwat",
        "ch"
      ],
      [
        "Ġr",
        "ain"
      ],
      [
        "Ġshow",
        "ed"
      ],
      [
        "Ġra",
        "bbit"
      ],
      [
        "Ġo",
        "kay"
      ],
      [
        "g",
        "an"
      ],
      [
        "Ġt",
        "al"
      ],
      [
        "by",
        "e"
      ],
      [
        "fe",
        "re"
      ],
      [
        "bb",
        "ed"
      ],
      [
        "Ġas",
        "k"
      ],
      [
        "Ġdif",
        "fere"
      ],
      [
        "Ġme",
        "an"
      ],
      [
        "Ġr",
        "ight"
      ],
      [
        "Ġy",
        "e"
      ],
      [
        "d",
        "ay"
      ],
      [
        "Ġwat",
        "ched"
      ],
      [
        "Ġbr",
        "ight"
      ],
      [
        "Ġfo",
        "llow"
      ],
      [
        "W",
        "e"
      ],
      [
        "ĠSp",
        "ot"
      ],
      [
        "S",
        "o"
      ],
      [
        "Ġevery",
        "one"
      ],
      [
        "Ġstr",
        "ong"
      ],
      [
        "Ġs",
        "qu"
      ],
      [
        "Ġst",
        "ick"
      ],
      [
        "Ġu",
        "se"
      ],
      [
        "Ġbe",
        "en"
      ],
      [
        "Ġm",
        "or"
      ],
      [
        "Ġvo",
        "ice"
      ],
      [
        "Ġt",
        "ra"
      ],
      [
        "er",
        "ed"
      ],
      [
        "Ġquick",
        "ly"
      ],
      [
        "at",
        "h"
      ],
      [
        "Ġ",
        "our"
      ],
      [
        "Ġw",
        "here"
      ],
      [
        "Ġy",
        "ell"
      ],
      [
        "Ġ",
        "N"
      ],
      [
        "ĠMom",
        "my"
      ],
      [
        "A",
        "nna"
      ],
      [
        "Ġdiffere",
        "nt"
      ],
      [
        "ĠB",
        "ob"
      ],
      [
        "Ġch",
        "ild"
      ],
      [
        "Ġcu",
        "ri"
      ],
      [
        "Ġbo",
        "at"
      ],
      [
        "n",
        "g"
      ],
      [
        "Ġs",
        "ure"
      ],
      [
        "ĠS",
        "ue"
      ],
      [
        "Ġbec",
        "ame"
      ],
      [
        "Ġgood",
        "bye"
      ],
      [
        "Ġfa",
        "ce"
      ],
      [
        "Ġpl",
        "ace"
      ],
      [
        "an",
        "ge"
      ],
      [
        "Ġh",
        "op"
      ],
      [
        "Ġh",
        "igh"
      ],
      [
        "Ġa",
        "m"
      ],
      [
        "L",
        "ook"
      ],
      [
        "a",
        "ught"
      ],
      [
        "Ġ",
        "R"
      ],
      [
        "Ġclos",
        "er"
      ],
      [
        "Ġst",
        "ore"
      ],
      [
        "Ġwar",
        "m"
      ],
      [
        "Ġdo",
        "es"
      ],
      [
        "Ġc",
        "r"
      ],
      [
        "Ġd",
        "ress"
      ],
      [
        "S",
        "ara"
      ],
      [
        "un",
        "ny"
      ],
      [
        "Ġcuri",
        "ous"
      ],
      [
        "Ġm",
        "ag"
      ],
      [
        "il",
        "a"
      ],
      [
        "J",
        "o"
      ],
      [
        "Ġc",
        "ook"
      ],
      [
        "Ġbe",
        "l"
      ],
      [
        "Ġfor",
        "g"
      ],
      [
        "Ġt",
        "ell"
      ],
      [
        "Ġfa",
        "v"
      ],
      [
        "nd",
        "ma"
      ],
      [
        "a",
        "ss"
      ],
      [
        "ou",
        "nt"
      ],
      [
        "c",
        "o"
      ],
      [
        "Ġth",
        "ree"
      ],
      [
        "le",
        "ep"
      ],
      [
        "Ġn",
        "ight"
      ],
      [
        "Ġop",
        "en"
      ],
      [
        "Ġc",
        "ake"
      ],
      [
        "m",
        "ore"
      ],
      [
        "Ġhe",
        "re"
      ],
      [
        "Ġany",
        "more"
      ],
      [
        "Ġbl",
        "ock"
      ],
      [
        "Ġf",
        "irst"
      ],
      [
        "it",
        "c"
      ],
      [
        "Ġb",
        "us"
      ],
      [
        "Ġp",
        "ull"
      ],
      [
        "is",
        "s"
      ],
      [
        "a",
        "ched"
      ],
      [
        "H",
        "er"
      ],
      [
        "ir",
        "ed"
      ],
      [
        "Ġbut",
        "ter"
      ],
      [
        "Ġ",
        "z"
      ],
      [
        "im",
        "es"
      ],
      [
        "ĠT",
        "h"
      ],
      [
        "or",
        "n"
      ],
      [
        "Ġsw",
        "eet"
      ],
      [
        "Ġp",
        "ain"
      ],
      [
        "Ġk",
        "id"
      ],
      [
        "Ġgra",
        "bbed"
      ],
      [
        "C",
        "an"
      ],
      [
        "Ġp",
        "u"
      ],
      [
        "is",
        "y"
      ],
      [
        "Ġon",
        "ly"
      ],
      [
        "Ġm",
        "on"
      ],
      [
        "Ġle",
        "a"
      ],
      [
        "Ġfe",
        "ll"
      ],
      [
        "Ġb",
        "a"
      ],
      [
        "Ġr",
        "u"
      ],
      [
        "Ġcon",
        "t"
      ],
      [
        "Ġbird",
        "s"
      ],
      [
        "Ġjump",
        "ed"
      ],
      [
        "Ġgl",
        "ad"
      ],
      [
        "Ġb",
        "it"
      ],
      [
        "Ġsa",
        "nd"
      ],
      [
        "itc",
        "hen"
      ],
      [
        "Ġk",
        "itchen"
      ],
      [
        "Ġhelp",
        "ed"
      ],
      [
        "Ġse",
        "es"
      ],
      [
        "Ġfi",
        "re"
      ],
      [
        "Ġp",
        "er"
      ],
      [
        "Ġfl",
        "o"
      ],
      [
        "Ġst",
        "op"
      ],
      [
        "ĠSara",
        "h"
      ],
      [
        "Ġhapp",
        "ened"
      ],
      [
        "Ġs",
        "ing"
      ],
      [
        "Ġgra",
        "ss"
      ],
      [
        "Ġb",
        "unny"
      ],
      [
        "Ġshout",
        "ed"
      ],
      [
        "Ġstor",
        "y"
      ],
      [
        "ĠL",
        "et"
      ],
      [
        "Ġt",
        "ri"
      ],
      [
        "nt",
        "s"
      ],
      [
        "Ġd",
        "r"
      ],
      [
        "a",
        "ir"
      ],
      [
        "A",
        "fter"
      ],
      [
        "ĠJ",
        "ane"
      ],
      [
        "pp",
        "y"
      ],
      [
        "Ġre",
        "ached"
      ],
      [
        "Ġbe",
        "h"
      ],
      [
        "Ġreal",
        "ized"
      ],
      [
        "Ġy",
        "ummy"
      ],
      [
        "Ġbr",
        "other"
      ],
      [
        "ĠD",
        "o"
      ],
      [
        "Ġl",
        "ady"
      ],
      [
        "Ġm",
        "um"
      ],
      [
        "Ġha",
        "ving"
      ],
      [
        "Ġpr",
        "in"
      ],
      [
        "in",
        "s"
      ],
      [
        "Ġfav",
        "or"
      ],
      [
        "ĠA",
        "s"
      ],
      [
        "'",
        "re"
      ],
      [
        "Ġm",
        "ess"
      ],
      [
        "Ġfavor",
        "ite"
      ],
      [
        "Ġdra",
        "w"
      ],
      [
        "Ġc",
        "re"
      ],
      [
        "Ġre",
        "st"
      ],
      [
        "Ġthr",
        "ough"
      ],
      [
        "Ġg",
        "ame"
      ],
      [
        "Ġh",
        "at"
      ],
      [
        "Ġat",
        "e"
      ],
      [
        "Ġl",
        "ess"
      ],
      [
        "Ġunder",
        "st"
      ],
      [
        "ak",
        "es"
      ],
      [
        "ĠEvery",
        "one"
      ],
      [
        "Ġso",
        "ft"
      ],
      [
        "Ġp",
        "are"
      ],
      [
        "z",
        "y"
      ],
      [
        "Ġth",
        "ing"
      ],
      [
        "Ġre",
        "ally"
      ],
      [
        "at",
        "her"
      ],
      [
        "Ġre",
        "ady"
      ],
      [
        "Mom",
        "my"
      ],
      [
        "Ġbe",
        "gan"
      ],
      [
        "w",
        "here"
      ],
      [
        "Ġpret",
        "end"
      ],
      [
        "ĠC",
        "an"
      ],
      [
        "Ġwor",
        "ld"
      ],
      [
        "ĠJo",
        "e"
      ],
      [
        "ĠT",
        "hat"
      ],
      [
        "Ġlook",
        "s"
      ],
      [
        "k",
        "en"
      ],
      [
        "Ġhim",
        "self"
      ],
      [
        "Ġmag",
        "ic"
      ],
      [
        "fu",
        "lly"
      ],
      [
        "Ġp",
        "ap"
      ],
      [
        "Ġd",
        "one"
      ],
      [
        "Ġbutter",
        "f"
      ],
      [
        "Ġma",
        "king"
      ],
      [
        "Ġc",
        "ut"
      ],
      [
        "Ġcom",
        "ing"
      ],
      [
        "Ġd",
        "uck"
      ],
      [
        "at",
        "er"
      ],
      [
        "Ġpo",
        "nd"
      ],
      [
        "Ġkid",
        "s"
      ],
      [
        "Ġwa",
        "ved"
      ],
      [
        "Ġwh",
        "y"
      ],
      [
        "Ġp",
        "rom"
      ],
      [
        "Ġt",
        "ired"
      ],
      [
        "Ġf",
        "ro"
      ],
      [
        "Ġfi",
        "x"
      ],
      [
        "o",
        "lly"
      ],
      [
        "st",
        "er"
      ],
      [
        "Ġm",
        "ouse"
      ],
      [
        "Ġwor",
        "ry"
      ],
      [
        "Ġp",
        "art"
      ],
      [
        "Ġcar",
        "s"
      ],
      [
        "Ġst",
        "e"
      ],
      [
        "Ġdel",
        "ic"
      ],
      [
        "Ġnam",
        "e"
      ],
      [
        "Ġflow",
        "er"
      ],
      [
        "ig",
        "n"
      ],
      [
        "Ġf",
        "ill"
      ],
      [
        "W",
        "ow"
      ],
      [
        "a",
        "isy"
      ],
      [
        "Ġto",
        "uch"
      ],
      [
        "ed",
        "dy"
      ],
      [
        "Ġfun",
        "ny"
      ],
      [
        "Ġcat",
        "ch"
      ],
      [
        "b",
        "o"
      ],
      [
        "Ġu",
        "sed"
      ],
      [
        "s",
        "h"
      ],
      [
        "Ġse",
        "en"
      ],
      [
        "Ġha",
        "ir"
      ],
      [
        "ĠJo",
        "hn"
      ],
      [
        "Ġta",
        "st"
      ],
      [
        "i",
        "ent"
      ],
      [
        "Ġto",
        "p"
      ],
      [
        "Ġpare",
        "nts"
      ],
      [
        "re",
        "l"
      ],
      [
        "Ġan",
        "other"
      ],
      [
        "Ġho",
        "ld"
      ],
      [
        "Ġho",
        "pped"
      ],
      [
        "Ġc",
        "ried"
      ],
      [
        "i",
        "ver"
      ],
      [
        "u",
        "ff"
      ],
      [
        "one",
        "y"
      ],
      [
        "m",
        "er"
      ],
      [
        "Ġdo",
        "ing"
      ],
      [
        "Ġc",
        "ool"
      ],
      [
        "Ġblock",
        "s"
      ],
      [
        "h",
        "y"
      ],
      [
        "\"",
        "."
      ],
      [
        "Ġp",
        "us"
      ],
      [
        "Ġsurpr",
        "ise"
      ],
      [
        "Ġl",
        "ight"
      ],
      [
        "Ġgre",
        "en"
      ],
      [
        "A",
        "s"
      ],
      [
        "Ġthan",
        "k"
      ],
      [
        "Ġless",
        "on"
      ],
      [
        "Tim",
        "my"
      ],
      [
        "at",
        "ion"
      ],
      [
        "Ġre",
        "ad"
      ],
      [
        "Ġflo",
        "or"
      ],
      [
        "Ġd",
        "in"
      ],
      [
        "Ġg",
        "i"
      ],
      [
        "Ġw",
        "ood"
      ],
      [
        "Ġf",
        "ull"
      ],
      [
        "D",
        "on"
      ],
      [
        "Ġd",
        "ri"
      ],
      [
        "ard",
        "s"
      ],
      [
        "Ġtre",
        "es"
      ],
      [
        "Ġrun",
        "ning"
      ],
      [
        "Ġwind",
        "ow"
      ],
      [
        "Ġwor",
        "ked"
      ],
      [
        "Ġye",
        "ars"
      ],
      [
        "Ġc",
        "ra"
      ],
      [
        "Ġd",
        "ro"
      ],
      [
        "Ġ",
        "-"
      ],
      [
        "Ġd",
        "ark"
      ],
      [
        "Ġbeh",
        "ind"
      ],
      [
        "Ġli",
        "kes"
      ],
      [
        "Ġsm",
        "ell"
      ],
      [
        "Ġsp",
        "ot"
      ],
      [
        "Ġw",
        "ished"
      ],
      [
        "Ġpap",
        "er"
      ],
      [
        "u",
        "ed"
      ],
      [
        "Ġyell",
        "ow"
      ],
      [
        "and",
        "y"
      ],
      [
        "Ġb",
        "ow"
      ],
      [
        "u",
        "l"
      ],
      [
        "re",
        "n"
      ],
      [
        "Ġsw",
        "im"
      ],
      [
        "Jo",
        "hn"
      ],
      [
        "Ġhapp",
        "ily"
      ],
      [
        "Ġb",
        "ag"
      ],
      [
        "Ġs",
        "at"
      ],
      [
        "Ġsh",
        "o"
      ],
      [
        "S",
        "am"
      ],
      [
        "Ġs",
        "leep"
      ],
      [
        "ar",
        "ing"
      ],
      [
        "Ġsurpr",
        "ised"
      ],
      [
        "el",
        "y"
      ],
      [
        "Ġfro",
        "g"
      ],
      [
        "Ġbutterf",
        "ly"
      ],
      [
        "i",
        "ke"
      ],
      [
        "Ġsw",
        "ing"
      ],
      [
        "Ġs",
        "et"
      ],
      [
        "Ġcare",
        "fully"
      ],
      [
        "ĠI",
        "n"
      ],
      [
        "Ġsl",
        "ow"
      ],
      [
        "Ġremember",
        "ed"
      ],
      [
        "Ġlo",
        "st"
      ],
      [
        "Ġco",
        "ld"
      ],
      [
        "Ġhe",
        "ld"
      ],
      [
        "ell",
        "o"
      ],
      [
        "H",
        "ello"
      ],
      [
        "Ġho",
        "le"
      ],
      [
        "Ġ",
        "ice"
      ],
      [
        "Ġlaug",
        "h"
      ],
      [
        "re",
        "w"
      ],
      [
        "Ġneed",
        "ed"
      ],
      [
        "Ġbu",
        "y"
      ],
      [
        "Ġper",
        "f"
      ],
      [
        "Ġle",
        "ft"
      ],
      [
        "on",
        "s"
      ],
      [
        "Ġmo",
        "ve"
      ],
      [
        "re",
        "ed"
      ],
      [
        "c",
        "ess"
      ],
      [
        "Ġany",
        "thing"
      ],
      [
        "Ġd",
        "ream"
      ],
      [
        "Ġt",
        "all"
      ],
      [
        "Ġenjoy",
        "ed"
      ],
      [
        "Ġwr",
        "ong"
      ],
      [
        "Ġar",
        "ri"
      ],
      [
        "u",
        "it"
      ],
      [
        "Ġhe",
        "ar"
      ],
      [
        "Ġfa",
        "ir"
      ],
      [
        "Ġa",
        "ir"
      ],
      [
        "Ġfollow",
        "ed"
      ],
      [
        "in",
        "ally"
      ],
      [
        "Ġbook",
        "s"
      ],
      [
        "ro",
        "ss"
      ],
      [
        "Ġe",
        "l"
      ],
      [
        "Ġchild",
        "ren"
      ],
      [
        "Ġh",
        "un"
      ],
      [
        "Ġdelic",
        "ious"
      ],
      [
        "Ġta",
        "ble"
      ],
      [
        "Ġfin",
        "ished"
      ],
      [
        "Ġcont",
        "in"
      ],
      [
        "Ġfriend",
        "ly"
      ],
      [
        "Ġd",
        "ir"
      ],
      [
        "Ġh",
        "ot"
      ],
      [
        "Ġsn",
        "ow"
      ],
      [
        "Ġher",
        "self"
      ],
      [
        "d",
        "s"
      ],
      [
        "l",
        "f"
      ],
      [
        "ĠA",
        "fter"
      ],
      [
        "Ġh",
        "ill"
      ],
      [
        "en",
        "s"
      ],
      [
        "Ġunderst",
        "and"
      ],
      [
        "Ġp",
        "lease"
      ],
      [
        "Ġclo",
        "se"
      ],
      [
        "in",
        "ed"
      ],
      [
        "Ġh",
        "id"
      ],
      [
        "Ġarri",
        "ved"
      ],
      [
        "Ġc",
        "ast"
      ],
      [
        "Ġel",
        "se"
      ],
      [
        "Ġar",
        "m"
      ],
      [
        "Ġba",
        "by"
      ],
      [
        "Ġwonder",
        "ful"
      ],
      [
        "Ġm",
        "ight"
      ],
      [
        "Ġg",
        "ent"
      ],
      [
        "Ġt",
        "ight"
      ],
      [
        "Ġforg",
        "ot"
      ],
      [
        "s",
        "p"
      ],
      [
        "ie",
        "ld"
      ],
      [
        "Ġb",
        "ug"
      ],
      [
        "ĠS",
        "ally"
      ],
      [
        "Ġcolor",
        "s"
      ],
      [
        "Ġre",
        "l"
      ],
      [
        "Ġbu",
        "ild"
      ],
      [
        "Ġbro",
        "ken"
      ],
      [
        "ĠD",
        "aisy"
      ],
      [
        "Ġa",
        "ble"
      ],
      [
        "Ġg",
        "one"
      ],
      [
        "a",
        "v"
      ],
      [
        "n",
        "er"
      ],
      [
        "ĠN",
        "ow"
      ],
      [
        "ĠBen",
        "ny"
      ],
      [
        "ĠL",
        "ila"
      ],
      [
        "Ġy",
        "es"
      ],
      [
        "at",
        "ter"
      ],
      [
        "Ġs",
        "ong"
      ],
      [
        "The",
        "n"
      ],
      [
        "i",
        "ch"
      ],
      [
        "Ġwa",
        "ll"
      ],
      [
        "Ġsqu",
        "ir"
      ],
      [
        "Ġfill",
        "ed"
      ],
      [
        "Ġag",
        "reed"
      ],
      [
        "Ġsome",
        "one"
      ],
      [
        "J",
        "ack"
      ],
      [
        "Ġcontin",
        "ued"
      ],
      [
        "ro",
        "om"
      ],
      [
        "Ġcre",
        "at"
      ],
      [
        "as",
        "ure"
      ],
      [
        "'",
        "ll"
      ],
      [
        "Ġc",
        "ount"
      ],
      [
        "Ġwant",
        "s"
      ],
      [
        "Ġsquir",
        "rel"
      ],
      [
        "ĠE",
        "m"
      ],
      [
        "Ġp",
        "ink"
      ],
      [
        "Ġlea",
        "ves"
      ],
      [
        "as",
        "k"
      ],
      [
        "Ġen",
        "ough"
      ],
      [
        "e",
        "y"
      ],
      [
        "ĠThe",
        "re"
      ],
      [
        "ĠTom",
        "my"
      ],
      [
        "Ġli",
        "on"
      ],
      [
        "F",
        "rom"
      ],
      [
        "am",
        "a"
      ],
      [
        "e",
        "e"
      ],
      [
        "O",
        "K"
      ],
      [
        "Ġmor",
        "ning"
      ],
      [
        "Ġv",
        "is"
      ],
      [
        "Ġmom",
        "ent"
      ],
      [
        "Ġfin",
        "ally"
      ],
      [
        "Ġget",
        "ting"
      ],
      [
        "Ġstay",
        "ed"
      ],
      [
        "Ġcook",
        "ies"
      ],
      [
        "Ġbre",
        "ak"
      ],
      [
        "a",
        "pp"
      ],
      [
        "Ġpo",
        "in"
      ],
      [
        "an",
        "ce"
      ],
      [
        "Ġbe",
        "ach"
      ],
      [
        "Ġ",
        "K"
      ],
      [
        "Ġfe",
        "w"
      ],
      [
        "ĠM",
        "aybe"
      ],
      [
        "Ġsc",
        "ary"
      ],
      [
        "Ġf",
        "ight"
      ],
      [
        "Ġsomet",
        "imes"
      ],
      [
        "r",
        "ow"
      ],
      [
        "as",
        "h"
      ],
      [
        "ri",
        "es"
      ],
      [
        "c",
        "ed"
      ],
      [
        "r",
        "ed"
      ],
      [
        "Ġturn",
        "ed"
      ],
      [
        "Ġhun",
        "gry"
      ],
      [
        "Ġf",
        "all"
      ],
      [
        "Ġdin",
        "ner"
      ],
      [
        "g",
        "on"
      ],
      [
        "Ġm",
        "other"
      ],
      [
        "Ġgra",
        "ndma"
      ],
      [
        "Ġj",
        "u"
      ],
      [
        "Ġw",
        "et"
      ],
      [
        "ĠW",
        "hat"
      ],
      [
        "Ġamaz",
        "ing"
      ],
      [
        "a",
        "pped"
      ],
      [
        "Ġtry",
        "ing"
      ],
      [
        "H",
        "is"
      ],
      [
        "Ġc",
        "ream"
      ],
      [
        "Ġdad",
        "dy"
      ],
      [
        "Ġperf",
        "ect"
      ],
      [
        "Ġp",
        "i"
      ],
      [
        "Ġm",
        "akes"
      ],
      [
        "Ġcast",
        "le"
      ],
      [
        "Ġother",
        "s"
      ],
      [
        "A",
        "t"
      ],
      [
        "Ġclimb",
        "ed"
      ],
      [
        "ke",
        "y"
      ],
      [
        "ou",
        "p"
      ],
      [
        "ĠTh",
        "is"
      ],
      [
        "Th",
        "is"
      ],
      [
        "Ġpicture",
        "s"
      ],
      [
        "ic",
        "y"
      ],
      [
        "Ġcom",
        "p"
      ],
      [
        "am",
        "p"
      ],
      [
        "Ġtal",
        "k"
      ],
      [
        "Ġm",
        "et"
      ],
      [
        "Ġmu",
        "s"
      ],
      [
        "Ġwh",
        "ite"
      ],
      [
        "o",
        "om"
      ],
      [
        "Ġlist",
        "ened"
      ],
      [
        "Ġsmil",
        "es"
      ],
      [
        "m",
        "an"
      ],
      [
        "Ġf",
        "ur"
      ],
      [
        "Ġball",
        "oon"
      ],
      [
        "Ġcl",
        "ot"
      ],
      [
        "or",
        "ing"
      ],
      [
        "ĠG",
        "ra"
      ],
      [
        "Ġal",
        "one"
      ],
      [
        "Ġclot",
        "hes"
      ],
      [
        "Ġpo",
        "l"
      ],
      [
        "ĠB",
        "illy"
      ],
      [
        "l",
        "c"
      ],
      [
        "Ġta",
        "il"
      ],
      [
        "Ġjo",
        "y"
      ],
      [
        "at",
        "ed"
      ],
      [
        "r",
        "ot"
      ],
      [
        "O",
        "h"
      ],
      [
        "Ġpu",
        "ppy"
      ],
      [
        "Ġsp",
        "l"
      ],
      [
        "en",
        "ce"
      ],
      [
        "Ġm",
        "ar"
      ],
      [
        "Ġwas",
        "n"
      ],
      [
        "Ġbr",
        "ought"
      ],
      [
        "Ġde",
        "ep"
      ],
      [
        "Ġevery",
        "thing"
      ],
      [
        "Ġp",
        "et"
      ],
      [
        "Ġse",
        "ar"
      ],
      [
        "Ġstr",
        "ange"
      ],
      [
        "is",
        "ter"
      ],
      [
        "ct",
        "or"
      ],
      [
        "Ġsp",
        "ark"
      ],
      [
        "d",
        "er"
      ],
      [
        "Ġs",
        "it"
      ],
      [
        "Ġwood",
        "s"
      ],
      [
        "Ġgr",
        "ow"
      ],
      [
        "Ġpull",
        "ed"
      ],
      [
        "l",
        "ing"
      ],
      [
        "Ġsa",
        "il"
      ],
      [
        "ĠT",
        "o"
      ],
      [
        "ot",
        "t"
      ],
      [
        "Ġw",
        "on"
      ],
      [
        "Ġpl",
        "an"
      ],
      [
        "Ġr",
        "ide"
      ],
      [
        "et",
        "er"
      ],
      [
        "Ġask",
        "s"
      ],
      [
        "Ġfo",
        "x"
      ],
      [
        "Ġp",
        "ie"
      ],
      [
        "Ġdan",
        "ger"
      ],
      [
        "Ġtre",
        "at"
      ],
      [
        "uff",
        "y"
      ],
      [
        "Ġro",
        "ll"
      ],
      [
        "Ġvis",
        "it"
      ],
      [
        "ĠA",
        "my"
      ],
      [
        "o",
        "s"
      ],
      [
        "Ġle",
        "ave"
      ],
      [
        "m",
        "ed"
      ],
      [
        "ĠJ",
        "en"
      ],
      [
        "Ġp",
        "at"
      ],
      [
        "uck",
        "y"
      ],
      [
        "Ġmus",
        "ic"
      ],
      [
        "Ġamaz",
        "ed"
      ],
      [
        "Ġwa",
        "ited"
      ],
      [
        "Ġt",
        "eddy"
      ],
      [
        "Ġh",
        "ide"
      ],
      [
        "m",
        "e"
      ],
      [
        "an",
        "g"
      ],
      [
        "e",
        "ver"
      ],
      [
        "Ġtow",
        "ards"
      ],
      [
        "M",
        "ax"
      ],
      [
        "ow",
        "er"
      ],
      [
        "Ġf",
        "ield"
      ],
      [
        "Ġla",
        "nd"
      ],
      [
        "Ġp",
        "re"
      ],
      [
        "Ġfly",
        "ing"
      ],
      [
        "z",
        "z"
      ],
      [
        "Ġp",
        "en"
      ],
      [
        "Ġs",
        "illy"
      ],
      [
        "Ġsh",
        "ared"
      ],
      [
        "Ġrun",
        "s"
      ],
      [
        "ain",
        "ed"
      ],
      [
        "Ġown",
        "er"
      ],
      [
        "Ġcl",
        "oud"
      ],
      [
        "ap",
        "e"
      ],
      [
        "Ġli",
        "ving"
      ],
      [
        "ug",
        "g"
      ],
      [
        "Ġqu",
        "i"
      ],
      [
        "am",
        "es"
      ],
      [
        "Ġjo",
        "b"
      ],
      [
        "Ġprom",
        "ised"
      ],
      [
        "O",
        "kay"
      ],
      [
        "Ġbel",
        "ie"
      ],
      [
        "ig",
        "g"
      ],
      [
        "Ġmor",
        "al"
      ],
      [
        "Ġg",
        "u"
      ],
      [
        "Ġs",
        "ide"
      ],
      [
        "g",
        "s"
      ],
      [
        "or",
        "m"
      ],
      [
        "Ġl",
        "ake"
      ],
      [
        "o",
        "l"
      ],
      [
        "Ġp",
        "a"
      ],
      [
        "Ġthink",
        "s"
      ],
      [
        "M",
        "aybe"
      ],
      [
        "ck",
        "et"
      ],
      [
        "op",
        "e"
      ],
      [
        "Ġpain",
        "t"
      ],
      [
        "Ġs",
        "ec"
      ],
      [
        "th",
        "y"
      ],
      [
        "Ġs",
        "ister"
      ],
      [
        "u",
        "ally"
      ],
      [
        "Ġpart",
        "y"
      ],
      [
        "Ġqui",
        "et"
      ],
      [
        "is",
        "es"
      ],
      [
        "Ġmu",
        "st"
      ],
      [
        "c",
        "le"
      ],
      [
        "Ġr",
        "ace"
      ],
      [
        "ĠJ",
        "im"
      ],
      [
        "av",
        "y"
      ],
      [
        "Ġm",
        "oney"
      ],
      [
        "Ġwe",
        "ar"
      ],
      [
        "s",
        "w"
      ],
      [
        "Ġwor",
        "ried"
      ],
      [
        "as",
        "ed"
      ],
      [
        "u",
        "p"
      ],
      [
        "Ġan",
        "sw"
      ],
      [
        "un",
        "ch"
      ],
      [
        "Ġslow",
        "ly"
      ],
      [
        "Ġp",
        "ot"
      ],
      [
        "ec",
        "es"
      ],
      [
        "Ġcolor",
        "ful"
      ],
      [
        "Ġfast",
        "er"
      ],
      [
        "Ġgr",
        "ate"
      ],
      [
        "Ġo",
        "w"
      ],
      [
        "Ġdan",
        "ce"
      ],
      [
        "Ġpi",
        "eces"
      ],
      [
        "Ġbr",
        "an"
      ],
      [
        "Ġb",
        "ott"
      ],
      [
        "Ġwe",
        "lc"
      ],
      [
        "Ġbro",
        "ke"
      ],
      [
        "Ġcu",
        "p"
      ],
      [
        "i",
        "x"
      ],
      [
        "Ġgrate",
        "ful"
      ],
      [
        "Ġg",
        "if"
      ],
      [
        "Ġs",
        "uch"
      ],
      [
        "Ġbig",
        "ger"
      ],
      [
        "z",
        "e"
      ],
      [
        "Ġtra",
        "in"
      ],
      [
        "p",
        "h"
      ],
      [
        "f",
        "ort"
      ],
      [
        "Ġsn",
        "ack"
      ],
      [
        "Ġch",
        "o"
      ],
      [
        "Ġre",
        "ach"
      ],
      [
        "Ġbl",
        "ank"
      ],
      [
        "ĠA",
        "ll"
      ],
      [
        "Ġmon",
        "ster"
      ],
      [
        "Ġpr",
        "o"
      ],
      [
        "Ġpl",
        "ant"
      ],
      [
        "Ġjo",
        "in"
      ],
      [
        "Ġr",
        "iver"
      ],
      [
        "Ġbl",
        "ack"
      ],
      [
        "le",
        "ss"
      ],
      [
        "Ġw",
        "in"
      ],
      [
        "Ġc",
        "andy"
      ],
      [
        "i",
        "re"
      ],
      [
        "Ġblank",
        "et"
      ],
      [
        "Ġsc",
        "ream"
      ],
      [
        "Ġtre",
        "asure"
      ],
      [
        "Ġmagic",
        "al"
      ],
      [
        "e",
        "ar"
      ],
      [
        "Ġ",
        "ve"
      ],
      [
        "Ġprin",
        "cess"
      ],
      [
        "Ġe",
        "le"
      ],
      [
        "Ġsm",
        "art"
      ],
      [
        "Ġb",
        "ike"
      ],
      [
        "Ġdanger",
        "ous"
      ],
      [
        "Ġs",
        "ign"
      ],
      [
        "Ġdra",
        "gon"
      ],
      [
        "Ġac",
        "ross"
      ],
      [
        "Ġmon",
        "key"
      ],
      [
        "S",
        "ure"
      ],
      [
        "Ġb",
        "ar"
      ],
      [
        "Ġevery",
        "where"
      ],
      [
        "Ġmo",
        "st"
      ],
      [
        "ĠDad",
        "dy"
      ],
      [
        "Ġhelp",
        "ing"
      ],
      [
        "Ġn",
        "ap"
      ],
      [
        "Ġfar",
        "mer"
      ],
      [
        "out",
        "h"
      ],
      [
        "Ġe",
        "m"
      ],
      [
        "Ġm",
        "outh"
      ],
      [
        "W",
        "hy"
      ],
      [
        "s",
        "et"
      ],
      [
        "Ġdis",
        "app"
      ],
      [
        "Ġwor",
        "ds"
      ],
      [
        "Ġj",
        "e"
      ],
      [
        "i",
        "pped"
      ],
      [
        "Ġst",
        "re"
      ],
      [
        "or",
        "ed"
      ],
      [
        "H",
        "i"
      ],
      [
        "Ġtow",
        "er"
      ],
      [
        "m",
        "ing"
      ],
      [
        "e",
        "ared"
      ],
      [
        "Ġth",
        "rew"
      ],
      [
        "Ġste",
        "pped"
      ],
      [
        "Ġhe",
        "avy"
      ],
      [
        "Ġdoll",
        "s"
      ],
      [
        "Ġp",
        "ass"
      ],
      [
        "Ġb",
        "ite"
      ],
      [
        "d",
        "e"
      ],
      [
        "Ġbow",
        "l"
      ],
      [
        "Ġdir",
        "ty"
      ],
      [
        "Ġtw",
        "ins"
      ],
      [
        "Ġsa",
        "me"
      ],
      [
        "Ġcry",
        "ing"
      ],
      [
        "Ġbe",
        "e"
      ],
      [
        "Ġsp",
        "r"
      ],
      [
        "e",
        "re"
      ],
      [
        "Ġdo",
        "ctor"
      ],
      [
        "id",
        "ent"
      ],
      [
        "ĠM",
        "olly"
      ],
      [
        "Ġac",
        "c"
      ],
      [
        "Ġbelie",
        "ve"
      ],
      [
        "Ġwould",
        "n"
      ],
      [
        "Ġb",
        "ath"
      ],
      [
        "Ġhe",
        "al"
      ],
      [
        "ĠF",
        "l"
      ],
      [
        "ch",
        "ool"
      ],
      [
        "Ġh",
        "ig"
      ],
      [
        "b",
        "ble"
      ],
      [
        "Ġclo",
        "sed"
      ],
      [
        "Ġcar",
        "rot"
      ],
      [
        "Ġhe",
        "art"
      ],
      [
        "M",
        "ia"
      ],
      [
        "Ġst",
        "uck"
      ],
      [
        "ck",
        "ed"
      ],
      [
        "Ġc",
        "our"
      ],
      [
        "Ġfr",
        "uit"
      ],
      [
        "Ġb",
        "uck"
      ],
      [
        "Ġm",
        "in"
      ],
      [
        "Ġat",
        "t"
      ],
      [
        "Ġte",
        "ac"
      ],
      [
        "Ġs",
        "chool"
      ],
      [
        "ĠM",
        "r"
      ],
      [
        "Ġbr",
        "own"
      ],
      [
        "Ġhop",
        "ed"
      ],
      [
        "ĠJ",
        "ill"
      ],
      [
        "ask",
        "et"
      ],
      [
        "it",
        "ing"
      ],
      [
        "Ġs",
        "uddenly"
      ],
      [
        "Ġb",
        "asket"
      ],
      [
        "Ġfeel",
        "s"
      ],
      [
        "Ġm",
        "ix"
      ],
      [
        "Ġch",
        "air"
      ],
      [
        "Ġeat",
        "ing"
      ],
      [
        "Ġto",
        "wn"
      ],
      [
        "Ġcour",
        "se"
      ],
      [
        "Ġcr",
        "ay"
      ],
      [
        "Ġcl",
        "apped"
      ],
      [
        "Ġco",
        "ll"
      ],
      [
        "Ġgent",
        "le"
      ],
      [
        "Ġfair",
        "y"
      ],
      [
        "pp",
        "ing"
      ],
      [
        "Ġbut",
        "t"
      ],
      [
        "Ġp",
        "ack"
      ],
      [
        "vent",
        "ually"
      ],
      [
        "Ġst",
        "and"
      ],
      [
        "i",
        "er"
      ],
      [
        "Ġdro",
        "ve"
      ],
      [
        "or",
        "s"
      ],
      [
        "Ġpus",
        "hed"
      ],
      [
        "b",
        "r"
      ],
      [
        "is",
        "sed"
      ],
      [
        "Ġwelc",
        "ome"
      ],
      [
        "t",
        "s"
      ],
      [
        "Ġsw",
        "ings"
      ],
      [
        "Ġwith",
        "out"
      ],
      [
        "Ġhig",
        "her"
      ],
      [
        "Ġto",
        "day"
      ],
      [
        "Ġne",
        "igh"
      ],
      [
        "Ġpo",
        "cket"
      ],
      [
        "or",
        "row"
      ],
      [
        "Ġh",
        "it"
      ],
      [
        "Ġteac",
        "her"
      ],
      [
        "Ġneigh",
        "b"
      ],
      [
        "Ġp",
        "ers"
      ],
      [
        "or",
        "d"
      ],
      [
        "Ġsm",
        "o"
      ],
      [
        "Ġg",
        "ames"
      ],
      [
        "our",
        "n"
      ],
      [
        "Ġpie",
        "ce"
      ],
      [
        "ra",
        "ct"
      ],
      [
        "Ġche",
        "ered"
      ],
      [
        "Ġw",
        "ings"
      ],
      [
        "Ġfor",
        "get"
      ],
      [
        "Ġb",
        "en"
      ],
      [
        "Ġexpl",
        "ained"
      ],
      [
        "Ġj",
        "ourn"
      ],
      [
        "Ġy",
        "ard"
      ],
      [
        "Ġlong",
        "er"
      ],
      [
        "Ġf",
        "ree"
      ],
      [
        "F",
        "inally"
      ],
      [
        "i",
        "ble"
      ],
      [
        "Ġc",
        "orn"
      ],
      [
        "Ġacc",
        "ident"
      ],
      [
        "h",
        "o"
      ],
      [
        "e",
        "ad"
      ],
      [
        "Ġd",
        "ry"
      ],
      [
        "Ġal",
        "ong"
      ],
      [
        "um",
        "b"
      ],
      [
        "ĠM",
        "ary"
      ],
      [
        "m",
        "ent"
      ],
      [
        "c",
        "y"
      ],
      [
        "Ġno",
        "ises"
      ],
      [
        "itt",
        "ing"
      ],
      [
        "Ġne",
        "ck"
      ],
      [
        "Ġsa",
        "ng"
      ],
      [
        "Ġin",
        "st"
      ],
      [
        "Ġl",
        "ate"
      ],
      [
        "Ġhapp",
        "en"
      ],
      [
        "Ġthr",
        "ow"
      ],
      [
        "Ġhug",
        "s"
      ],
      [
        "L",
        "ila"
      ],
      [
        "Ġyou",
        "ng"
      ],
      [
        "Ġturn",
        "s"
      ],
      [
        "Ġstor",
        "ies"
      ],
      [
        "ve",
        "l"
      ],
      [
        "Ġsho",
        "es"
      ],
      [
        "ph",
        "ant"
      ],
      [
        "Ġl",
        "on"
      ],
      [
        "Ġm",
        "iss"
      ],
      [
        "Ġadventure",
        "s"
      ],
      [
        "Ġsing",
        "ing"
      ],
      [
        "Ġtr",
        "ou"
      ],
      [
        "Ġwe",
        "ll"
      ],
      [
        "Ġse",
        "a"
      ],
      [
        "Ġl",
        "unch"
      ],
      [
        "Ġapp",
        "le"
      ],
      [
        "Ġup",
        "set"
      ],
      [
        "Ġlon",
        "ely"
      ],
      [
        "Ġke",
        "y"
      ],
      [
        "c",
        "hes"
      ],
      [
        "Ġbel",
        "ong"
      ],
      [
        "bb",
        "y"
      ],
      [
        "ou",
        "n"
      ],
      [
        "Ġd",
        "ist"
      ],
      [
        "Ġsec",
        "ret"
      ],
      [
        "Ġstre",
        "et"
      ],
      [
        "Ġpl",
        "ac"
      ],
      [
        "Ġele",
        "phant"
      ],
      [
        "Ġto",
        "m"
      ],
      [
        "Ġw",
        "ish"
      ],
      [
        "Ġf",
        "ence"
      ],
      [
        "Ġm",
        "ine"
      ],
      [
        "ount",
        "ain"
      ],
      [
        "Ġm",
        "at"
      ],
      [
        "e",
        "k"
      ],
      [
        "Ġsh",
        "ap"
      ],
      [
        "Ġsh",
        "ook"
      ],
      [
        "Ġexpl",
        "oring"
      ],
      [
        "Ġmo",
        "ved"
      ],
      [
        "Ġp",
        "urp"
      ],
      [
        "Ġye",
        "ar"
      ],
      [
        "aught",
        "y"
      ],
      [
        "Ġnear",
        "by"
      ],
      [
        "Ġn",
        "aughty"
      ],
      [
        "Ġst",
        "ar"
      ],
      [
        "Ġs",
        "oup"
      ],
      [
        "Ġsh",
        "op"
      ],
      [
        "Ġw",
        "ise"
      ],
      [
        "ĠGra",
        "ndma"
      ],
      [
        "Ġst",
        "ars"
      ],
      [
        "Ġow",
        "l"
      ],
      [
        "Ġbr",
        "ing"
      ],
      [
        "fu",
        "sed"
      ],
      [
        "Ġj",
        "ar"
      ],
      [
        "b",
        "ow"
      ],
      [
        "D",
        "o"
      ],
      [
        "ock",
        "ed"
      ],
      [
        "Ġin",
        "v"
      ],
      [
        "Ġex",
        "p"
      ],
      [
        "Ġw",
        "he"
      ],
      [
        "y",
        "ard"
      ],
      [
        "Ġc",
        "aught"
      ],
      [
        "Ġs",
        "u"
      ],
      [
        "w",
        "ard"
      ],
      [
        "Ġback",
        "yard"
      ],
      [
        "Ġsee",
        "med"
      ],
      [
        "a",
        "il"
      ],
      [
        "Ġ",
        "es"
      ],
      [
        "Ġrel",
        "ie"
      ],
      [
        "Ġdro",
        "pped"
      ],
      [
        "Ġp",
        "h"
      ],
      [
        "Ġrock",
        "s"
      ],
      [
        "ĠEm",
        "ma"
      ],
      [
        "aught",
        "er"
      ],
      [
        "ll",
        "o"
      ],
      [
        "Ġ",
        "3"
      ],
      [
        "us",
        "h"
      ],
      [
        "Ġdr",
        "ink"
      ],
      [
        "Ġbuck",
        "et"
      ],
      [
        "Ġd",
        "es"
      ],
      [
        "Ġc",
        "a"
      ],
      [
        "ad",
        "ow"
      ],
      [
        "c",
        "es"
      ],
      [
        "Ġpurp",
        "le"
      ],
      [
        "Ġsw",
        "am"
      ],
      [
        "Ġfar",
        "m"
      ],
      [
        "Ġre",
        "sp"
      ],
      [
        "Ġta",
        "king"
      ],
      [
        "Ġma",
        "il"
      ],
      [
        "Ġor",
        "ange"
      ],
      [
        "Ġth",
        "ough"
      ],
      [
        "ion",
        "s"
      ],
      [
        "A",
        "nd"
      ],
      [
        "Ġshap",
        "es"
      ],
      [
        "Ġp",
        "ast"
      ],
      [
        "co",
        "l"
      ],
      [
        "Ġc",
        "ow"
      ],
      [
        "Ġst",
        "u"
      ],
      [
        "ĠTh",
        "ank"
      ],
      [
        "Ġwo",
        "ke"
      ],
      [
        "Ġben",
        "ch"
      ],
      [
        "Ġsound",
        "s"
      ],
      [
        "Ġa",
        "f"
      ],
      [
        "un",
        "g"
      ],
      [
        "it",
        "y"
      ],
      [
        "s",
        "y"
      ],
      [
        "Ġwonder",
        "ed"
      ],
      [
        "Ġbus",
        "y"
      ],
      [
        "Ġf",
        "it"
      ],
      [
        "Ġt",
        "iny"
      ],
      [
        "Ġo",
        "b"
      ],
      [
        "Ġno",
        "se"
      ],
      [
        "Ġs",
        "itting"
      ],
      [
        "Ġn",
        "est"
      ],
      [
        "Ġrain",
        "bow"
      ],
      [
        "es",
        "e"
      ],
      [
        "Ġd",
        "aughter"
      ],
      [
        "Ġta",
        "kes"
      ],
      [
        "Ġm",
        "ark"
      ],
      [
        "Ġm",
        "ad"
      ],
      [
        "f",
        "ish"
      ],
      [
        "Ġc",
        "ou"
      ],
      [
        "Ġk",
        "ite"
      ],
      [
        "t",
        "o"
      ],
      [
        "Ġ",
        "O"
      ],
      [
        "re",
        "ad"
      ],
      [
        "Ġhold",
        "ing"
      ],
      [
        "w",
        "eet"
      ],
      [
        "Ġnot",
        "hing"
      ],
      [
        "Ġcom",
        "es"
      ],
      [
        "Ġju",
        "ice"
      ],
      [
        "Ġarm",
        "s"
      ],
      [
        "th",
        "day"
      ],
      [
        "Ġp",
        "ig"
      ],
      [
        "Ġco",
        "at"
      ],
      [
        "o",
        "g"
      ],
      [
        "ĠFl",
        "uffy"
      ],
      [
        "in",
        "ing"
      ],
      [
        "Ġc",
        "ir"
      ],
      [
        "ĠIn",
        "side"
      ],
      [
        "Ġbran",
        "ch"
      ],
      [
        "ra",
        "id"
      ],
      [
        "Ġrelie",
        "ved"
      ],
      [
        "pp",
        "er"
      ],
      [
        "Ġaf",
        "raid"
      ],
      [
        "c",
        "ing"
      ],
      [
        "o",
        "se"
      ],
      [
        "id",
        "ge"
      ],
      [
        "Ġdri",
        "ver"
      ],
      [
        "Ġm",
        "il"
      ],
      [
        "Ġfore",
        "ver"
      ],
      [
        "ver",
        "ed"
      ],
      [
        "Ġsp",
        "oon"
      ],
      [
        "Ġcut",
        "e"
      ],
      [
        "Ġcar",
        "ry"
      ],
      [
        "Ġgif",
        "t"
      ],
      [
        "Ġs",
        "ick"
      ],
      [
        "Ġb",
        "oun"
      ],
      [
        "Ġli",
        "ft"
      ],
      [
        "st",
        "ing"
      ],
      [
        "Ġpe",
        "ace"
      ],
      [
        "O",
        "f"
      ],
      [
        "Ġprom",
        "ise"
      ],
      [
        "our",
        "s"
      ],
      [
        "ĠF",
        "inally"
      ],
      [
        "Ġhug",
        "e"
      ],
      [
        "Ġa",
        "ct"
      ],
      [
        "Ġto",
        "u"
      ],
      [
        "Ġtou",
        "ched"
      ],
      [
        "Ġpat",
        "ient"
      ],
      [
        "u",
        "nt"
      ],
      [
        "Ġk",
        "ing"
      ],
      [
        "Ġr",
        "ound"
      ],
      [
        "c",
        "er"
      ],
      [
        "s",
        "c"
      ],
      [
        "Ġhe",
        "llo"
      ],
      [
        "ĠC",
        "ome"
      ],
      [
        "Ġbir",
        "thday"
      ],
      [
        "Ġf",
        "ing"
      ],
      [
        "Ġl",
        "etter"
      ],
      [
        "Ġgra",
        "b"
      ],
      [
        "Ġint",
        "ere"
      ],
      [
        "Ġexc",
        "iting"
      ],
      [
        "le",
        "t"
      ],
      [
        "Ġsun",
        "ny"
      ],
      [
        "Ġche",
        "ese"
      ],
      [
        "et",
        "h"
      ],
      [
        "Ġon",
        "to"
      ],
      [
        "Ġlaug",
        "hing"
      ],
      [
        "Ġday",
        "s"
      ],
      [
        "bo",
        "ard"
      ],
      [
        "Ġjourn",
        "ey"
      ],
      [
        "Ġg",
        "igg"
      ],
      [
        "Ġb",
        "and"
      ],
      [
        "Ġcreat",
        "ure"
      ],
      [
        "Ġdis",
        "co"
      ],
      [
        "ĠM",
        "ama"
      ],
      [
        "itt",
        "ens"
      ],
      [
        "Ġbre",
        "ad"
      ],
      [
        "He",
        "y"
      ],
      [
        "ar",
        "p"
      ],
      [
        "Ġre",
        "t"
      ],
      [
        "Ġim",
        "ag"
      ],
      [
        "p",
        "ed"
      ],
      [
        "sh",
        "ine"
      ],
      [
        "Ġli",
        "fe"
      ],
      [
        "Ġk",
        "ick"
      ],
      [
        "Ġbus",
        "h"
      ],
      [
        "g",
        "ged"
      ],
      [
        "Ġhop",
        "e"
      ],
      [
        "Ġp",
        "ower"
      ],
      [
        "Ġcra",
        "w"
      ],
      [
        "Ġshe",
        "ll"
      ],
      [
        "Ġco",
        "zy"
      ],
      [
        "Ġswim",
        "ming"
      ],
      [
        "Tom",
        "my"
      ],
      [
        "Ġin",
        "c"
      ],
      [
        "Ġbott",
        "le"
      ],
      [
        "Ġm",
        "ist"
      ],
      [
        "Ġsh",
        "arp"
      ],
      [
        "Ġw",
        "ra"
      ],
      [
        "g",
        "g"
      ],
      [
        "Ġs",
        "uc"
      ],
      [
        "Ġcom",
        "fort"
      ],
      [
        "Ġinst",
        "ead"
      ],
      [
        "Ġwh",
        "ist"
      ],
      [
        "Ġmil",
        "k"
      ],
      [
        "Ġwatch",
        "ing"
      ],
      [
        "Ġret",
        "urn"
      ],
      [
        "Ġe",
        "ar"
      ],
      [
        "n",
        "ess"
      ],
      [
        "Ġsp",
        "in"
      ],
      [
        "al",
        "m"
      ],
      [
        "Ġaccident",
        "ally"
      ],
      [
        "Ġe",
        "as"
      ],
      [
        "Ġsun",
        "shine"
      ],
      [
        "t",
        "en"
      ],
      [
        "ĠSo",
        "on"
      ],
      [
        "Ġc",
        "ave"
      ],
      [
        "p",
        "a"
      ],
      [
        "ĠSam",
        "my"
      ],
      [
        "Ġsp",
        "o"
      ],
      [
        "Ġput",
        "s"
      ],
      [
        "Ġl",
        "ucky"
      ],
      [
        "Ġtal",
        "ked"
      ],
      [
        "Ġh",
        "oney"
      ],
      [
        "Ġp",
        "udd"
      ],
      [
        "Ġpoin",
        "ted"
      ],
      [
        "Ġgi",
        "ves"
      ],
      [
        "Ġcoll",
        "ect"
      ],
      [
        "Ġg",
        "ather"
      ],
      [
        "it",
        "ch"
      ],
      [
        "Ġro",
        "ad"
      ],
      [
        "Ġ",
        "ent"
      ],
      [
        "L",
        "ater"
      ],
      [
        "Ġsmil",
        "ing"
      ],
      [
        "Ġb",
        "ought"
      ],
      [
        "Ġany",
        "one"
      ],
      [
        "Ġh",
        "or"
      ],
      [
        "Ġsear",
        "ched"
      ],
      [
        "Ġl",
        "ater"
      ],
      [
        "Ġc",
        "e"
      ],
      [
        "Ġf",
        "an"
      ],
      [
        "Ġsand",
        "w"
      ],
      [
        "b",
        "all"
      ],
      [
        "r",
        "ound"
      ],
      [
        "itt",
        "en"
      ],
      [
        "Ġapp",
        "les"
      ],
      [
        "el",
        "s"
      ],
      [
        "ble",
        "m"
      ],
      [
        "ir",
        "t"
      ],
      [
        "Ġpro",
        "blem"
      ],
      [
        "Ġme",
        "et"
      ],
      [
        "iz",
        "e"
      ],
      [
        "B",
        "ob"
      ],
      [
        "Ġm",
        "ach"
      ],
      [
        "L",
        "ucy"
      ],
      [
        "Ġw",
        "om"
      ],
      [
        "Ġlo",
        "ves"
      ],
      [
        "Ġintere",
        "sting"
      ],
      [
        "G",
        "ood"
      ],
      [
        "Åĵ",
        "I"
      ],
      [
        "Ġwom",
        "an"
      ],
      [
        "Ġpl",
        "ane"
      ],
      [
        "ĠT",
        "weet"
      ],
      [
        "Ġk",
        "iss"
      ],
      [
        "Ġpre",
        "s"
      ],
      [
        "Ġheal",
        "thy"
      ],
      [
        "e",
        "b"
      ],
      [
        "Ġp",
        "ile"
      ],
      [
        "Ġtast",
        "y"
      ],
      [
        "Ġduck",
        "s"
      ],
      [
        "u",
        "b"
      ],
      [
        "Ġv",
        "ill"
      ],
      [
        "ĠJim",
        "my"
      ],
      [
        "o",
        "ve"
      ],
      [
        "Ġw",
        "ide"
      ],
      [
        "on",
        "t"
      ],
      [
        "am",
        "ed"
      ],
      [
        "a",
        "ur"
      ],
      [
        "Ġad",
        "m"
      ],
      [
        "Ġe",
        "ag"
      ],
      [
        "Ġsp",
        "id"
      ],
      [
        "Ġcle",
        "ver"
      ],
      [
        "Ġcray",
        "ons"
      ],
      [
        "Ġpr",
        "ot"
      ],
      [
        "Ġm",
        "atter"
      ],
      [
        "Ġtrou",
        "ble"
      ],
      [
        "er",
        "ly"
      ],
      [
        "nd",
        "pa"
      ],
      [
        "Ġz",
        "oom"
      ],
      [
        "Ġcloud",
        "s"
      ],
      [
        "ow",
        "ed"
      ],
      [
        "ĠW",
        "ith"
      ],
      [
        "Ġstor",
        "m"
      ],
      [
        "Ġpers",
        "on"
      ],
      [
        "Ġp",
        "ath"
      ],
      [
        "ck",
        "s"
      ],
      [
        "Ġp",
        "ill"
      ],
      [
        "Ġfe",
        "ather"
      ],
      [
        "Ġr",
        "ope"
      ],
      [
        "Ġp",
        "op"
      ],
      [
        "Ġsh",
        "ining"
      ],
      [
        "Ġprot",
        "ect"
      ],
      [
        "Ġsmell",
        "ed"
      ],
      [
        "Ġfr",
        "ont"
      ],
      [
        "Ġh",
        "on"
      ],
      [
        "Ġbutt",
        "on"
      ],
      [
        "Ġp",
        "ract"
      ],
      [
        "Ġspot",
        "ted"
      ],
      [
        "Ġscream",
        "ed"
      ],
      [
        "Ġz",
        "oo"
      ],
      [
        "Ġmin",
        "ut"
      ],
      [
        "ĠE",
        "ll"
      ],
      [
        "Ġpres",
        "ent"
      ],
      [
        "C",
        "ome"
      ],
      [
        "Ġa",
        "p"
      ],
      [
        "Ġmu",
        "d"
      ],
      [
        "Ġv",
        "al"
      ],
      [
        "Ġresp",
        "ect"
      ],
      [
        "Ġsa",
        "f"
      ],
      [
        "Ġdan",
        "ced"
      ],
      [
        "Ġche",
        "er"
      ],
      [
        "Ġor",
        "gan"
      ],
      [
        "J",
        "im"
      ],
      [
        "Ġp",
        "ar"
      ],
      [
        "Ġqu",
        "est"
      ],
      [
        "o",
        "nd"
      ],
      [
        "Ġapp",
        "eared"
      ],
      [
        "Ġwh",
        "ich"
      ],
      [
        "Ġpu",
        "zz"
      ],
      [
        "Ġse",
        "at"
      ],
      [
        "M",
        "olly"
      ],
      [
        "Ġte",
        "ach"
      ],
      [
        "Ġmy",
        "ster"
      ],
      [
        "Ġsnow",
        "man"
      ],
      [
        "J",
        "ust"
      ],
      [
        "is",
        "a"
      ],
      [
        "Ġsn",
        "ake"
      ],
      [
        "Ġth",
        "in"
      ],
      [
        "er",
        "t"
      ],
      [
        "a",
        "le"
      ],
      [
        "Ġw",
        "ild"
      ],
      [
        "Ġas",
        "leep"
      ],
      [
        "Ġlove",
        "ly"
      ],
      [
        "Ġs",
        "ur"
      ],
      [
        "Ġansw",
        "er"
      ],
      [
        "ep",
        "end"
      ],
      [
        "Ġwe",
        "aring"
      ],
      [
        "Ġgent",
        "ly"
      ],
      [
        "Ġneighb",
        "or"
      ],
      [
        "oo",
        "se"
      ],
      [
        "M",
        "um"
      ],
      [
        "Ġb",
        "ark"
      ],
      [
        "Ġhor",
        "se"
      ],
      [
        "Ġgi",
        "ant"
      ],
      [
        "Ġplac",
        "es"
      ],
      [
        "Ġgo",
        "es"
      ],
      [
        "Ġwho",
        "le"
      ],
      [
        "omet",
        "imes"
      ],
      [
        "Ġsear",
        "ch"
      ],
      [
        "Ġspl",
        "as"
      ],
      [
        "E",
        "very"
      ],
      [
        "S",
        "t"
      ],
      [
        "Ġcorn",
        "er"
      ],
      [
        "Ġimp",
        "ress"
      ],
      [
        "ul",
        "ar"
      ],
      [
        "Ġdir",
        "t"
      ],
      [
        "Ġm",
        "ed"
      ],
      [
        "Ġsh",
        "r"
      ],
      [
        "e",
        "en"
      ],
      [
        "Ġtri",
        "es"
      ],
      [
        "Ġtri",
        "p"
      ],
      [
        "Ġcon",
        "fused"
      ],
      [
        "ĠEm",
        "ily"
      ],
      [
        "Ġli",
        "ve"
      ],
      [
        "Ġm",
        "ind"
      ],
      [
        "Ġd",
        "i"
      ],
      [
        "at",
        "o"
      ],
      [
        "l",
        "a"
      ],
      [
        "Ġroll",
        "ed"
      ],
      [
        "Ġc",
        "ard"
      ],
      [
        "Ġsl",
        "id"
      ],
      [
        "Ġtast",
        "ed"
      ],
      [
        "n",
        "ic"
      ],
      [
        "ce",
        "an"
      ],
      [
        "Ġas",
        "h"
      ],
      [
        "Ġo",
        "cean"
      ],
      [
        "I",
        "n"
      ],
      [
        "Ġsu",
        "pp"
      ],
      [
        "Ġforg",
        "ive"
      ],
      [
        "Ġpic",
        "nic"
      ],
      [
        "Ġru",
        "de"
      ],
      [
        "Ġmach",
        "ine"
      ],
      [
        "e",
        "x"
      ],
      [
        "Ġsp",
        "ent"
      ],
      [
        "ĠG",
        "o"
      ],
      [
        "Ġdri",
        "ve"
      ],
      [
        "Ġte",
        "eth"
      ],
      [
        "Ġs",
        "er"
      ],
      [
        "ss",
        "ed"
      ],
      [
        "itt",
        "y"
      ],
      [
        "Ġph",
        "one"
      ],
      [
        "ĠH",
        "ow"
      ],
      [
        "Ġo",
        "ven"
      ],
      [
        "Ġp",
        "an"
      ],
      [
        "Ġp",
        "our"
      ],
      [
        "Ġla",
        "st"
      ],
      [
        "Ġc",
        "alm"
      ],
      [
        "Ġpretend",
        "ed"
      ],
      [
        "Ġdel",
        "ight"
      ],
      [
        "Ġcook",
        "ie"
      ],
      [
        "Ġfur",
        "ry"
      ],
      [
        "Ġspid",
        "er"
      ],
      [
        "iz",
        "z"
      ],
      [
        "Ġfe",
        "et"
      ],
      [
        "Ġfa",
        "ces"
      ],
      [
        "un",
        "k"
      ],
      [
        "Ġl",
        "ay"
      ],
      [
        "Ġwor",
        "m"
      ],
      [
        "Ġr",
        "ing"
      ],
      [
        "ĠC",
        "h"
      ],
      [
        "Ġre",
        "c"
      ],
      [
        "um",
        "ber"
      ],
      [
        "Ġhelp",
        "ful"
      ],
      [
        "Ġl",
        "ad"
      ],
      [
[...]
